{
    "vocab": [
        "\n",
        " ",
        "!",
        "$",
        "&",
        "'",
        ",",
        "-",
        ".",
        "3",
        ":",
        ";",
        "?",
        "A",
        "B",
        "C",
        "D",
        "E",
        "F",
        "G",
        "H",
        "I",
        "J",
        "K",
        "L",
        "M",
        "N",
        "O",
        "P",
        "Q",
        "R",
        "S",
        "T",
        "U",
        "V",
        "W",
        "X",
        "Y",
        "Z",
        "a",
        "b",
        "c",
        "d",
        "e",
        "f",
        "g",
        "h",
        "i",
        "j",
        "k",
        "l",
        "m",
        "n",
        "o",
        "p",
        "q",
        "r",
        "s",
        "t",
        "u",
        "v",
        "w",
        "x",
        "y",
        "z",
        "e ",
        "th",
        "t ",
        "s ",
        "d ",
        ", ",
        "ou",
        "er",
        "in",
        "y ",
        "an",
        ":\n",
        "or",
        "o ",
        "en",
        "\n\n",
        "ar",
        "on",
        "ll",
        "ha",
        ",\n",
        "the ",
        ".\n\n",
        "is ",
        "es",
        "f ",
        "you",
        "I ",
        "ll ",
        "to ",
        "and ",
        "ow",
        "ea",
        "ing",
        "wi",
        "om",
        "r ",
        "st",
        "er ",
        "of ",
        "th ",
        "hi",
        "se",
        "no",
        "or ",
        "ch",
        "my ",
        "a ",
        "ve ",
        "in ",
        "e, ",
        "he ",
        "the",
        "li",
        "re",
        "at ",
        "ing ",
        "st ",
        "An",
        "ear",
        "ti",
        "oo",
        "you ",
        "gh",
        "ri",
        "en ",
        "; ",
        "ma",
        "le",
        "ra",
        "And ",
        "'s ",
        "that ",
        "not ",
        "m ",
        ";\n",
        ".\n",
        "on ",
        "thou",
        "la",
        "ir",
        "be",
        "as ",
        "his ",
        "me ",
        "hat ",
        "ut ",
        "ed ",
        "ld ",
        "sh",
        "with ",
        "ow ",
        ": ",
        "O:\n",
        "ur",
        "your ",
        "ro",
        "it",
        "be ",
        "an ",
        "di",
        "her",
        "k ",
        "me",
        "it ",
        "ch ",
        "d, ",
        "un",
        "EN",
        "for ",
        "ke ",
        "ce",
        "y, ",
        "for",
        "ther",
        "IN",
        "at",
        "?\n\n",
        "fa",
        "have ",
        "S:\n",
        "se ",
        "es ",
        "s, ",
        "com",
        "sa",
        "l ",
        "ee",
        "our ",
        ". ",
        "ent",
        "AR",
        "ce ",
        "this ",
        "lo",
        "thou ",
        "n ",
        "Th",
        "le ",
        "'d ",
        "IO:\n",
        "sha",
        "sp",
        "thy ",
        "t, ",
        "ta",
        "rea",
        "ould ",
        "su",
        "ly ",
        "de",
        "! ",
        "US:\n",
        "will ",
        "but ",
        "The ",
        "con",
        "ca",
        "om ",
        "ru",
        "wh",
        "we",
        "si",
        "ve",
        "To ",
        "wor",
        "are ",
        "d\n",
        "ne",
        "wa",
        "ol",
        "ver",
        "da",
        "ght",
        "mor",
        "ir ",
        "mi",
        "ood ",
        "UC",
        "man",
        "by ",
        "te",
        "ING",
        "up",
        "ck",
        "shall ",
        "all ",
        "ther ",
        "s\n",
        "so ",
        "oun",
        "mu",
        "AN",
        "Wh",
        "lor",
        "ER",
        "et ",
        "s,\n",
        "OR",
        "him ",
        "res",
        "ear ",
        "mo",
        "we ",
        "him",
        "sel",
        "!\n",
        "to",
        "ET",
        "here ",
        "tt",
        "That ",
        "kn",
        "rom ",
        "po",
        "qu",
        "our",
        "fe",
        "vi",
        "? ",
        "do ",
        "d,\n",
        "do",
        "!\n\n",
        "ds ",
        "her ",
        "ere ",
        "ge",
        "pa",
        "no ",
        "'ll ",
        "A:\n",
        "ght ",
        "ga",
        "what ",
        "KING",
        "bl",
        "hich ",
        "?\n",
        "ci",
        "But ",
        "fi",
        "bo",
        "est ",
        "ong",
        "he",
        "from ",
        "ou ",
        "al",
        "one ",
        "so",
        "sir",
        "war",
        "IC",
        "dea",
        "OL",
        "us ",
        "ess ",
        "p ",
        "hear",
        "good ",
        "hea",
        "d.\n\n",
        "fu",
        "was ",
        "' ",
        "EL",
        "if ",
        "lea",
        "ent ",
        "IUS:\n",
        "KING ",
        "ARD",
        "For ",
        "us",
        "e\n",
        "row",
        "ome ",
        "min",
        "of",
        "par",
        "--",
        "ST",
        "would ",
        "My ",
        "is",
        "est",
        "e,\n",
        "their ",
        "Wi",
        "e.\n\n",
        "ous ",
        "ran",
        "'t",
        "I'll ",
        "pro",
        "am ",
        "E:\n",
        "gi",
        "o, ",
        "thin",
        "ho",
        "they ",
        "ON",
        "der",
        "ver ",
        "per",
        "thee ",
        "y\n",
        "et",
        "gra",
        "sw",
        "As ",
        "bro",
        "What ",
        "more ",
        "ble ",
        "II",
        "son",
        "el",
        "de ",
        "king",
        "ba",
        "A ",
        "she ",
        "were ",
        "ck ",
        "s.\n\n",
        "t\n",
        "hath ",
        "Ha",
        "ge ",
        "tru",
        "go",
        "tion",
        "y.\n\n",
        "gh ",
        "like ",
        "ARD ",
        "make ",
        "RO",
        "du",
        "TIO:\n",
        "and",
        "here",
        "ni",
        "pr",
        "na",
        "than ",
        "ET:\n",
        "AU",
        "gain",
        "may ",
        "let ",
        "mp",
        "Y ",
        "E ",
        "w ",
        "ll, ",
        "You ",
        "must ",
        "mb",
        "y,\n",
        "es, ",
        "pe",
        "come ",
        "irst ",
        "fri",
        "spea",
        "them ",
        "me, ",
        "should ",
        "end ",
        "you, ",
        "K:\n",
        "ter",
        "end",
        "en, ",
        "If ",
        "upon ",
        "self",
        "CA",
        "ICH",
        "pp",
        "RICH",
        "can",
        "which ",
        "DU",
        "DUK",
        "fore ",
        "DUKE ",
        "sta",
        "mar",
        "had ",
        "hon",
        "then ",
        "now ",
        "how ",
        "ac",
        "gu",
        "ven ",
        "ome",
        "ENTIO:\n",
        "Go",
        "ER:\n",
        "ey",
        "O ",
        "own ",
        "id ",
        "pla",
        "own",
        "ts ",
        "out ",
        "ese ",
        "ce, ",
        "ence",
        "Y:\n",
        "ster",
        "ig",
        "ose ",
        "O, ",
        "INC",
        "some ",
        "ow, ",
        "He ",
        "ry ",
        "loo",
        "des",
        "ful ",
        "when ",
        "again",
        "very ",
        "oul",
        "gent",
        "know ",
        "ex",
        "ven",
        "did ",
        "ence ",
        "AB",
        "il",
        "there",
        "Which ",
        "op",
        "cu",
        "al ",
        "sti",
        "bu",
        "ess",
        "such ",
        "hat",
        "In ",
        "erv",
        "d:\n",
        "man ",
        "LO",
        "say ",
        "ure ",
        "pri",
        "With ",
        "char",
        "RICHARD ",
        "First ",
        "coun",
        "take ",
        "EST",
        "I:\n",
        "chi",
        "most ",
        "dy ",
        "give ",
        "pra",
        "UCH",
        "Of ",
        "sin",
        "sh ",
        "lord",
        "father",
        "death",
        "vo",
        "GLO",
        "GLOUC",
        "GLOUCEST",
        "GLOUCESTER:\n",
        "that",
        "yet ",
        "these ",
        "EEN",
        "This ",
        "Lor",
        "well",
        "Ma",
        "sir, ",
        "t,\n",
        "LI",
        "ment",
        "sc",
        "king ",
        "love ",
        "well ",
        "ed",
        "QU",
        "QUEEN",
        "VINC",
        "VINCENTIO:\n",
        "Mar",
        "whi",
        "Com",
        "tion ",
        "OF",
        "OF ",
        "ted ",
        "thing ",
        "can ",
        "them",
        "see ",
        "t.\n\n",
        "How ",
        "ad",
        "brea",
        "HEN",
        "self ",
        "Thou ",
        "Se",
        "all",
        "ang",
        "lt ",
        "af",
        "ves ",
        "grea",
        "So ",
        "HENR",
        "HENRY ",
        "tu",
        "fo",
        "'tis ",
        "ES",
        "sed ",
        "rou",
        "any ",
        "tell ",
        "lan",
        "es\n",
        "Is ",
        "ORI",
        "ab",
        "go ",
        "up ",
        "ty ",
        "ng",
        "don",
        "see",
        "QUEEN ",
        "ap",
        "lif",
        "pre",
        "es,\n",
        "jo",
        "ES:\n",
        "ught",
        "YOR",
        "YORK:\n",
        "mine ",
        "Your ",
        "mer",
        "pres",
        "k, ",
        "We ",
        "love",
        "INIUS:\n",
        "too ",
        "dee",
        "er:\n",
        "my",
        "there ",
        "swee",
        "ju",
        "PET",
        "lu",
        "It ",
        "rie",
        "th, ",
        "never ",
        "ind ",
        "der ",
        "'T",
        "far",
        "Ri",
        "ED",
        "EDW",
        "made ",
        "er, ",
        "ers ",
        "GR",
        "Why, ",
        ",--",
        "TH",
        "tra",
        "art ",
        "ter ",
        "UM",
        "MI",
        "plea",
        "co",
        "MEN",
        "ant",
        "LE",
        "LUC",
        "time ",
        "ss",
        "ong ",
        "IS",
        "use ",
        "less ",
        "ELL",
        "mon",
        "'st ",
        "hear ",
        "cond ",
        "lie",
        "noble ",
        "much ",
        "que",
        "doth ",
        "cannot ",
        "tw",
        "urse",
        "Ed",
        "ME",
        "hou",
        "hat, ",
        "iti",
        "id",
        "bloo",
        "Edwar",
        "ROME",
        "ROMEO:\n",
        "MENEN",
        "MENENIUS:\n",
        "Or ",
        "No",
        "ks ",
        "pea",
        "know",
        "your",
        "s:\n",
        "tter ",
        "ke",
        "By ",
        "awa",
        "brother",
        "ay, ",
        "thing",
        "wom",
        "bea",
        "PETR",
        "PETRUCH",
        "PETRUCHIO:\n",
        "Be",
        "OM",
        "son ",
        "think ",
        "time",
        "ban",
        "prin",
        "We",
        "ld",
        "God ",
        "where ",
        "When ",
        "ant ",
        "thee, ",
        "lord, ",
        "sea",
        "Ay, ",
        "new",
        "shi",
        "ser",
        "Come, ",
        "MAR",
        "HA",
        "ONT",
        "re ",
        "llow",
        "now",
        "Cl",
        "Where ",
        "been ",
        "tor",
        "CORI",
        "CORIOL",
        "CORIOLAN",
        "Second ",
        "with",
        "speak ",
        "too",
        "nor ",
        "Rome",
        "CORIOLANUS:\n",
        "other ",
        "ate ",
        "zen",
        "being ",
        "ble",
        "sor",
        "dam",
        "tri",
        "crow",
        "har",
        "ct ",
        "s;\n",
        "thi",
        "ve, ",
        "foo",
        "BA",
        "off",
        "fair ",
        "men",
        "goo",
        "tur",
        "ish",
        "te ",
        "old ",
        "ound ",
        "gar",
        "daught",
        "gentle",
        "d's ",
        "INA:\n",
        "row ",
        "tun",
        "ving ",
        "Lord ",
        "IV",
        "D:\n",
        "'er ",
        "fl",
        "fear",
        "III:\n",
        "ved ",
        "Than ",
        "night",
        "ness ",
        "car",
        "as",
        "bra",
        "br",
        "y.\n",
        "man:\n",
        "War",
        "great ",
        "ever ",
        "wee",
        "Warwi",
        "s; ",
        "sweet ",
        "st, ",
        "pi",
        "cont",
        "Un",
        "cl",
        "beg",
        "ys ",
        "ongu",
        "sla",
        "His ",
        "ing, ",
        "AD",
        "swor",
        "'Tis ",
        "ISAB",
        "ISABELL",
        "ISABELLA:\n",
        "y:\n",
        "hast ",
        "poor ",
        "d; ",
        "tongu",
        "Who ",
        "y; ",
        "pow",
        "RAN",
        "cor",
        "'t ",
        "who ",
        "red ",
        "ain",
        "Let ",
        "him, ",
        "men ",
        "not, ",
        "it, ",
        "ten",
        "cha",
        "And, ",
        "kee",
        "many ",
        "than",
        "JU",
        "JULI",
        "JULIET:\n",
        "LEONT",
        "LEONTES:\n",
        "e's ",
        "d;\n",
        "kin",
        "comes ",
        "Bu",
        "eng",
        "before ",
        "ul",
        "litt",
        "ears ",
        "LAD",
        "LADY ",
        "ene",
        "ity ",
        "cour",
        "VOL",
        "thee",
        "Pro",
        "sle",
        "ENC",
        "ENCE:\n",
        "pur",
        "ce,\n",
        "BR",
        "s.\n",
        "Then ",
        "ster ",
        "Citi",
        "Citizen",
        "though ",
        "s: ",
        "friend",
        "se, ",
        "y's ",
        "dst ",
        "hor",
        "not",
        "ck, ",
        "life",
        "hand",
        "The",
        "tch",
        "Serv",
        "Nay, ",
        "tter",
        "mean",
        "SIC",
        "SICINIUS:\n",
        "What, ",
        "soul",
        "ve\n",
        "hat's ",
        "one",
        "Sha",
        "honour",
        "spi",
        "ep",
        "ft ",
        "wo",
        "father ",
        "ance ",
        "will",
        "kes ",
        "ign",
        "arm",
        "and\n",
        "and, ",
        "look ",
        "leave ",
        "on, ",
        "No, ",
        "day ",
        "grie",
        "young",
        "ill ",
        "hel",
        "him.\n\n",
        "Be ",
        "cious ",
        "cou",
        "against ",
        "till ",
        "bear ",
        "dis",
        "urder",
        "LUCIO:\n",
        "Not ",
        "sub",
        "call ",
        "TI",
        "im",
        "those ",
        "to-",
        "Richar",
        "EDWARD ",
        "IV:\n",
        "cur",
        "the\n",
        "wr",
        "ARD:\n",
        "LO:\n",
        "str",
        "both ",
        "hop",
        "tal",
        "you.\n\n",
        "Have ",
        "dly ",
        "mother",
        "ry, ",
        "Yor",
        "speak",
        "Ca",
        "rep",
        "it.\n\n",
        "Her",
        "ine ",
        "Now ",
        "Thy ",
        "Hen",
        "H:\n",
        "way ",
        "stand ",
        "ce\n",
        "ELI",
        "ELIZ",
        "ELIZAB",
        "ELIZABET",
        "ELIZABETH:\n",
        "fir",
        "thus ",
        "bes",
        "ree ",
        "bur",
        "oul ",
        "o' ",
        "Sir",
        "hus",
        "roy",
        "GRE",
        "IAN",
        "peop",
        "unto ",
        "sen",
        "llow ",
        "cause ",
        "set ",
        "dd",
        "t's ",
        "dou",
        "S ",
        "ss ",
        "CL",
        "little ",
        "l, ",
        "true ",
        "happ",
        "MER",
        "PER",
        "d.\n",
        "ff",
        "cei",
        "comp",
        "Now, ",
        "qui",
        "Good ",
        "WAR",
        "WARW",
        "WARWIC",
        "WARWICK:\n",
        "Citizen:\n",
        "ting ",
        "crown",
        "land",
        "am",
        "UT",
        "II:\n",
        "--\n",
        "this",
        "'d\n",
        "drea",
        "Nurse",
        "se\n",
        "er.\n\n",
        "now, ",
        "win",
        "come, ",
        "HAM",
        "HAM:\n",
        "No ",
        "nat",
        "ore ",
        "ec",
        "heart ",
        "CAP",
        "CAPU",
        "CAPUL",
        "CAPULET:\n",
        "could ",
        "th,\n",
        "other",
        "va",
        "gre",
        "fortun",
        "h, ",
        "tr",
        "Shall ",
        "name ",
        "y;\n",
        "us, ",
        "Ou",
        "Well, ",
        "ill",
        "ps ",
        "wat",
        "st\n",
        "sun",
        "every ",
        "BRUT",
        "BRUTUS:\n",
        "Whi",
        "better ",
        "myself",
        "wel",
        "dra",
        "me.\n\n",
        "brother ",
        "queen",
        "BUC",
        "BUCKING",
        "BUCKINGHAM:\n",
        "Will ",
        "From ",
        "pu",
        "ce.\n\n",
        "I, ",
        "ant:\n",
        "BOL",
        "BOLING",
        "BOLINGB",
        "BOLINGBRO",
        "BOLINGBROK",
        "BOLINGBROKE:\n",
        "TRAN",
        "TRANIO:\n",
        "hu",
        "s. ",
        "y: ",
        "blood ",
        "put ",
        "led ",
        "bor",
        "hol",
        "wif",
        "clo",
        "me\n",
        "two ",
        "Nurse:\n",
        "a\n",
        "ves",
        "whose ",
        "Li",
        "ough ",
        "st:\n",
        "int",
        "stru",
        "answ",
        "keep ",
        "bid ",
        "spo",
        "stra",
        "ment ",
        "heaven",
        "you\n",
        "They ",
        "master",
        "mber",
        "chan",
        "cen",
        "Ta",
        "down",
        "There",
        "me,\n",
        "MARG",
        "MARGAR",
        "MARGARET:\n",
        "ESS ",
        "pray ",
        "dr",
        "reme",
        "wea",
        "are",
        "lad",
        "nothing ",
        "bring ",
        "gentle ",
        "th\n",
        "ings ",
        "stres",
        "King ",
        "MIL",
        "ATH",
        "might ",
        "ces ",
        "vir",
        "Our ",
        "then",
        "frien",
        "'d, ",
        "age",
        "Clar",
        "thous",
        "Yet ",
        "stri",
        "comfor",
        "She ",
        "Bo",
        "den",
        "les ",
        "comm",
        "death ",
        "fal",
        "Why ",
        "ANG",
        "ANGEL",
        "ANGELO:\n",
        "HOR",
        "On",
        "y?\n\n",
        "cra",
        "se,\n",
        "marri",
        "heav",
        "Du",
        "EL:\n",
        "CU",
        "ARINA:\n",
        "Marci",
        "Rom",
        "Thi",
        "sol",
        "long ",
        "owar",
        "look",
        "hold ",
        "cla",
        "fair",
        "new ",
        "star",
        "law",
        "KATH",
        "KATHARINA:\n",
        "ly, ",
        "ten ",
        "There ",
        "ence, ",
        "Nor ",
        "pit",
        "Here ",
        "e.\n",
        "still ",
        "life ",
        "light",
        "Eng",
        "I\n",
        "e; ",
        "bear",
        "s?\n\n",
        "eech ",
        "honour ",
        "child",
        "long",
        "young ",
        "banish",
        "fec",
        "bri",
        "s! ",
        "gen",
        "st,\n",
        "app",
        "dow",
        "so, ",
        "ound",
        "hour",
        "some",
        "Do ",
        "ESCA",
        "ESCAL",
        "ESCALUS:\n",
        "ced ",
        "ch, ",
        "le, ",
        "well, ",
        "tain",
        "doub",
        "conf",
        "don ",
        "call",
        "gracious ",
        "han",
        "done ",
        "bus",
        "won",
        "came ",
        "thought ",
        "full ",
        "bla",
        "ke, ",
        "Hath ",
        "il ",
        "AND:\n",
        "att",
        "trea",
        "cer",
        "heart",
        "Go ",
        "Ju",
        "voi",
        "vill",
        "Duke ",
        "DUCH",
        "Sir, ",
        "ing.\n\n",
        "get ",
        "dear ",
        "'\n",
        "then, ",
        "cre",
        "vere",
        "royal ",
        "Provo",
        "ROS",
        "Ange",
        "ither ",
        "grace ",
        "find ",
        "Up",
        "oa",
        "best ",
        "se.\n\n",
        "whom ",
        "say, ",
        "one, ",
        "dar",
        "ses ",
        "bal",
        "into ",
        "therefore ",
        "pt ",
        "es.\n\n",
        "ing\n",
        "ator",
        "'d,\n",
        "live ",
        "makes ",
        "down ",
        "d: ",
        "IA:\n",
        "husb",
        "sure ",
        "wife",
        "temp",
        "trait",
        "dost ",
        "VI:\n",
        "CAMIL",
        "CAMILLO:\n",
        "fur",
        "thousand ",
        "since ",
        "Even ",
        "where",
        "pati",
        "ge, ",
        "bit",
        "DUCHESS ",
        "RI",
        "off ",
        "fee",
        "c ",
        "first ",
        "ess, ",
        "ook ",
        "ssi",
        "thine ",
        "Come ",
        "else ",
        "lou",
        "jest",
        "HORT",
        "HORTEN",
        "HORTENS",
        "heard ",
        "But, ",
        "offi",
        "not\n",
        "woman",
        "In",
        "hand ",
        "All ",
        "tre",
        "sovere",
        "ar ",
        "Sa",
        "Edward ",
        "Nor",
        "FRI",
        "FRIAR",
        "FRIAR ",
        "HORTENSIO:\n",
        "virtu",
        "y. ",
        "devi",
        "er,\n",
        "once ",
        "fla",
        "Upon ",
        "out",
        "sure",
        "s' ",
        "rant ",
        "part ",
        "Gi",
        "Are ",
        "fear ",
        "stan",
        "eyes ",
        "Ty",
        "wilt ",
        "wrong",
        "BAP",
        "BAPTI",
        "BAPTIST",
        "BAPTISTA:\n",
        "sur",
        "reven",
        "Would ",
        "stay ",
        "busin",
        "heaven ",
        "live",
        "i' ",
        "COM",
        "COMINIUS:\n",
        "hast",
        "lord.\n\n",
        "it\n",
        "turn",
        "e:\n",
        "EDWARD:\n",
        "AUT",
        "AUTOL",
        "AUTOLY",
        "AUTOLYC",
        "AUTOLYCUS:\n",
        "to\n",
        "ms ",
        "in\n",
        "For",
        "es; ",
        "stran",
        "dam, ",
        "ged ",
        "Thir",
        "show",
        "lau",
        "York",
        "CLAR",
        "CLARENCE:\n",
        "EY:\n",
        "g ",
        "Con",
        "has ",
        "serv",
        "Sh",
        "ber",
        "rough ",
        "forth ",
        "prom",
        "man, ",
        "More ",
        "Gent",
        "Third ",
        "himself",
        "xt ",
        "che",
        "shalt ",
        "Murder",
        "own:\n",
        "Provost:\n",
        "its ",
        "prou",
        "even ",
        "le,\n",
        "high",
        "world ",
        "father's ",
        "far ",
        "under",
        "thou, ",
        "NOR",
        "BEN",
        "BENVOL",
        "BENVOLIO:\n",
        "Clown:\n",
        "stat",
        "ut",
        "ding ",
        "lay ",
        "each ",
        "hope ",
        "happy ",
        "anca",
        "GRUM",
        "GRUMIO:\n",
        "PROS",
        "PROSPER",
        "PROSPERO:\n",
        "ther, ",
        "au",
        "ise ",
        "ort ",
        "imp",
        "nee",
        "thank ",
        "fellow",
        "spiri",
        "prison",
        "myself ",
        "holy ",
        "Murderer:\n",
        "MERCU",
        "MERCUTIO:\n",
        "deli",
        "form",
        "about ",
        "hang",
        "ori",
        "none ",
        "ning ",
        "er\n",
        "fai",
        "cau",
        "thought",
        "worl",
        "s!\n",
        "thout ",
        "word ",
        "d?\n\n",
        "kis",
        "cousin",
        "LUCENTIO:\n",
        "die ",
        "he's ",
        "servi",
        "please ",
        "Were ",
        "Take ",
        "fore, ",
        "d-",
        "tear",
        "h ",
        "mistres",
        "LAND:\n",
        "Servant:\n",
        "POM",
        "POMP",
        "yi",
        "show ",
        "us.\n\n",
        "Pa",
        "right",
        "think",
        "van",
        "justi",
        "bi",
        "sent ",
        "word",
        "ren",
        "dang",
        "turn ",
        "Give ",
        "subj",
        "ight",
        "Do",
        "Lu",
        "PAU",
        "PAUL",
        "PAULINA:\n",
        "d. ",
        ",--\n\n",
        "ying ",
        "over",
        "At ",
        "Te",
        "lord ",
        "et, ",
        "belie",
        "ire ",
        "Mu",
        "kind",
        "meet ",
        "stu",
        "weep",
        "morrow",
        "POMPEY:\n",
        "GREM",
        "GREMIO:\n",
        "wer",
        "gainst ",
        "ling ",
        "on\n",
        "only ",
        "soldi",
        "gener",
        "house ",
        "that, ",
        "sit ",
        "beseech ",
        "gr",
        "Go, ",
        "Au",
        "hal",
        "ke\n",
        "follow",
        "VOLUM",
        "VOLUMN",
        "VOLUMNIA:\n",
        "fre",
        "that's ",
        "ded ",
        "ces",
        "cri",
        "gro",
        "ght, ",
        "sent",
        "father, ",
        "Romeo",
        "POL",
        "POLI",
        "POLIX",
        "POLIXEN",
        "POLIXENES:\n",
        "hun",
        "is, ",
        "sir; ",
        "fin",
        "Was ",
        "grow",
        "disp",
        "Gre",
        "me; ",
        "woul",
        "prove ",
        "mean ",
        "merc",
        "thee,\n",
        "Serving",
        "Servingman:\n",
        "king, ",
        "HAST",
        "HASTING",
        "HASTINGS:\n",
        "BER",
        "centi",
        "GON",
        "le.\n\n",
        "eld ",
        "bar",
        "rest ",
        "men, ",
        "Where",
        "esseng",
        "toge",
        "Gentle",
        "o'",
        "sion ",
        "tain ",
        "mill",
        "fol",
        "T:\n",
        "Tybal",
        "LAU",
        "LAUR",
        "LAURENCE:\n",
        "y!\n\n",
        "tou",
        "plu",
        "purpo",
        "mea",
        "th.\n\n",
        "fare",
        "unc",
        "sir.\n\n",
        "ward ",
        "ign ",
        "right ",
        "majest",
        "BY:\n",
        "Angelo",
        "that\n",
        "why ",
        "night ",
        "able ",
        "Ala",
        "run",
        "said ",
        "ship",
        "after ",
        "ed\n",
        "Har",
        "back",
        "ef",
        "wre",
        "Bol",
        "let's ",
        "St",
        "cest",
        "land ",
        "Par",
        "foul ",
        "CLI",
        "CLIF",
        "CLIFF",
        "NORTH",
        "NORTHUM",
        "NORTHUMBER",
        "NORTHUMBERLAND:\n",
        "Mon",
        "Pet",
        "help ",
        "faul",
        "ne'er ",
        "Re",
        "ve,\n",
        "natu",
        "Though ",
        "words ",
        "hate",
        "Su",
        "comman",
        "ID",
        "ation",
        "if",
        "VI",
        "head ",
        "spee",
        "hence",
        "in, ",
        "y! ",
        "ken ",
        "prince",
        "rather ",
        "cian",
        "vent",
        "gain ",
        "part",
        "read",
        "indee",
        "content",
        "well.\n\n",
        "power ",
        "stand",
        "ll\n",
        "ls ",
        "bloody ",
        "sk",
        "pray",
        "save ",
        "year",
        "n'd ",
        "sleep",
        "sing ",
        "col",
        "away ",
        "ANN",
        "ANNE:\n",
        "Richard ",
        "lord,\n",
        "Bi",
        "igh",
        "tongue ",
        "back ",
        "e?\n\n",
        "poin",
        "you,\n",
        "ess\n",
        "Fa",
        "pardon ",
        "gat",
        "sil",
        "Her ",
        "lear",
        "traitor",
        "thy",
        "sovereign",
        "age ",
        "Henry ",
        "Clif",
        "Cliffor",
        "PR",
        "PRINC",
        "Fran",
        "daughter ",
        "igni",
        "ONE:\n",
        "IAN:\n",
        "countr",
        "ever",
        "stor",
        "answer ",
        "kind ",
        "send ",
        "crea",
        "em",
        "told ",
        "sin ",
        "tch ",
        "rought ",
        "Cori",
        "atch",
        "Pra",
        "son, ",
        "left ",
        "On ",
        "bon",
        "An ",
        "sto",
        "e;\n",
        "one.\n\n",
        "Ah, ",
        "ORD:\n",
        "Boling",
        "Bolingbro",
        "Signi",
        "Warwick ",
        "Kat",
        "dear",
        "ink ",
        "est, ",
        "worthy ",
        "him\n",
        "quar",
        "gla",
        "here, ",
        "three ",
        "en\n",
        "bet",
        "Fare",
        "Tell ",
        "saw ",
        "fall ",
        "tell",
        "shoul",
        "fea",
        "ed, ",
        "might",
        "Whose ",
        "mber ",
        "Po",
        "love, ",
        "Signior ",
        "e: ",
        "ery ",
        "himself ",
        "be\n",
        "ough",
        "instru",
        "on,\n",
        "hom",
        "Sen",
        "Some ",
        "entrea",
        "chil",
        "La",
        "wife ",
        "Di",
        "requ",
        "times ",
        "towar",
        "ctor",
        "soul ",
        "ight ",
        "me;\n",
        "ce:\n",
        "mis",
        "queen ",
        "duke ",
        "Monta",
        "Montagu",
        "mother ",
        "ds, ",
        "d! ",
        "e-",
        "Did ",
        "Should ",
        ",' ",
        "e! ",
        "sca",
        "ini",
        "tit",
        "disc",
        "news ",
        "Senator",
        "us,\n",
        "To",
        "ins ",
        "ince ",
        "t;\n",
        "ing,\n",
        "shor",
        "ecu",
        "lish ",
        "present",
        "without ",
        "Jo",
        "high ",
        "ge,\n",
        "boo",
        "villain",
        "murder",
        "One ",
        "ob",
        "mou",
        "need ",
        "ts, ",
        "bod",
        "Like ",
        "things ",
        "Messeng",
        "Messenger:\n",
        "friends ",
        "'\n\n",
        "AUF",
        "AUFID",
        "AUFIDIUS:\n",
        "ze ",
        "does ",
        "choo",
        "lies ",
        "of\n",
        "ck'd ",
        "ge\n",
        "pardon",
        "er'd ",
        "ty",
        "tend",
        "sorrow",
        "flow",
        "swa",
        "Lord:\n",
        "Edward's ",
        "her, ",
        "She",
        "FL",
        "FLORI",
        "FLORIZ",
        "FLORIZEL:\n",
        "Cap",
        "--\n\n",
        "fit ",
        "say",
        "o's ",
        "def",
        "cho",
        "These ",
        "got ",
        "house",
        "m, ",
        "another ",
        "obe",
        "lie ",
        "fortune ",
        "den ",
        "de\n",
        "gg",
        "wri",
        "twent",
        "execu",
        "sai",
        "hence ",
        "daughter",
        "dish",
        "st.\n\n",
        "bir",
        "grief",
        "swear ",
        "LE:\n",
        "TON",
        "ARI",
        "ION",
        "Clau",
        "Claudi",
        "kill ",
        "we'll ",
        "he\n",
        "lly ",
        "Senator:\n",
        "on.\n\n",
        "present ",
        "Had ",
        "issu",
        "e. ",
        "thinks ",
        "light ",
        "woo",
        "ful",
        "him,\n",
        "gol",
        "consu",
        "jud",
        "compan",
        "ness",
        "it,\n",
        "Hast",
        "Gentleman:\n",
        "cking",
        "Juli",
        "pher",
        "SE",
        "resol",
        "while ",
        "lar",
        "Against ",
        "under ",
        "le\n",
        "through ",
        "MARC",
        "break ",
        "ns ",
        "what's ",
        "d!\n\n",
        "s?\n",
        "streng",
        "last ",
        "within ",
        "ench",
        "din",
        "May ",
        "stee",
        ",--\n",
        "prop",
        "talk ",
        "much",
        "ship ",
        "heavy ",
        "nothing",
        "false ",
        "lords, ",
        "Warwick",
        "God's ",
        "Glou",
        "Gloucest",
        "Warwick, ",
        "Romeo ",
        "RICHARD:\n",
        "Shepher",
        "SEBA",
        "SEBAST",
        "SEBASTIAN:\n",
        "'t.\n\n",
        "have\n",
        "them, ",
        "this, ",
        "MARCIUS:\n",
        "What's ",
        "gran",
        "bun",
        "et's ",
        "seem ",
        "ke.\n\n",
        "believe ",
        "pe ",
        "sig",
        "tion\n",
        "name",
        "anc",
        "subjec",
        "thee.\n\n",
        "deed ",
        "frow",
        "death,\n",
        "dead ",
        "sorrow ",
        "dream",
        "beau",
        "OW",
        "Camill",
        "Shepherd:\n",
        "recei",
        "best",
        "Vol",
        "suc",
        "Till ",
        "seen ",
        "follow ",
        "tears ",
        "wear",
        "e'er ",
        "lives ",
        "nurse",
        "stre",
        "so.\n\n",
        "ds,\n",
        "bos",
        "king,\n",
        "kill",
        "ken",
        "sister",
        "guil",
        "Bucking",
        "Buckingha",
        "o.\n\n",
        "BION",
        "BIOND",
        "BIONDELL",
        "BIONDELLO:\n",
        "ly.\n\n",
        "s? ",
        "Si",
        "means ",
        "Then, ",
        "k'd ",
        "born",
        "brought ",
        "hour ",
        "joy ",
        "knee",
        "his\n",
        "ew",
        "one,\n",
        "draw ",
        "'d.\n\n",
        "same ",
        "face ",
        "spe",
        "state ",
        "Mo",
        "dom ",
        "sh'd ",
        "gone",
        "master ",
        "musi",
        "mind ",
        "day",
        "Norfol",
        "suff",
        "accu",
        "mit",
        "b ",
        "batt",
        "peace ",
        "es;\n",
        "deserv",
        "pass",
        "me: ",
        "fra",
        "scar",
        "cks ",
        "mour",
        "seem",
        "brow",
        "prof",
        "husband",
        "no, ",
        "bow",
        "thu",
        "es:\n",
        "common ",
        "all, ",
        "tion, ",
        "Wel",
        "thr",
        "wixt ",
        "pain",
        "body ",
        "clou",
        "Can ",
        "ish ",
        "may",
        "wit",
        "me.\n",
        "canst ",
        "comfort ",
        "aint ",
        "OP",
        "AUMER",
        "AUMERLE:\n",
        "Lucenti",
        "ANTON",
        "ANTONIO:\n",
        "es: ",
        "enemi",
        "yet",
        "says ",
        "change ",
        "im ",
        "thri",
        "late",
        "fidi",
        "wish ",
        "ought ",
        "proud ",
        "ess.\n\n",
        "val",
        "grace",
        "ard ",
        "hither",
        "safe",
        "over ",
        "reason",
        "you?\n\n",
        "Thus ",
        "fight",
        "ond ",
        "gentleman",
        "dem",
        "more, ",
        "ence,\n",
        "again ",
        "ked ",
        "wear ",
        "world",
        "Tran",
        "advi",
        "why, ",
        "twenty ",
        "life, ",
        "Lanca",
        "God, ",
        "didst ",
        "pen",
        "play ",
        "sati",
        "GONZ",
        "GONZA",
        "GONZALO:\n",
        "with\n",
        "enough",
        "there's ",
        "l,\n",
        "t; ",
        "y-",
        "You",
        "ready ",
        "res ",
        "roo",
        "not.\n\n",
        "madam",
        "Madam, ",
        "childr",
        "beat ",
        "a, ",
        "danger",
        "ges ",
        "knows ",
        "dest",
        "ounds ",
        "wretch",
        "o'er",
        "d!\n",
        "cro",
        "emp",
        "lin",
        "crown ",
        "main",
        "Most ",
        "pas",
        "brother, ",
        "he, ",
        "court",
        "tly ",
        "fall",
        "lip",
        "abo",
        "knew ",
        "pity ",
        "glor",
        "king.\n\n",
        "Pom",
        "tender ",
        "maid",
        "HER",
        "friar",
        "lic",
        "cit",
        "tty ",
        "re\n",
        "ments ",
        "cap",
        "half ",
        "promi",
        "cru",
        "Bes",
        "themsel",
        "way, ",
        "lose ",
        "warrant ",
        "k,\n",
        "hur",
        "death, ",
        "hate ",
        "x ",
        "ffi",
        "pois",
        "ep ",
        "brother's ",
        "home",
        "poss",
        "chee",
        "loving ",
        "ch'd ",
        "ve.\n\n",
        "n, ",
        "will, ",
        "t:\n",
        "ess,\n",
        "y!\n",
        "cut ",
        "ite ",
        "quarre",
        "Marry, ",
        "prince ",
        "Petru",
        "ath",
        "CLIFFORD:\n",
        "HERMI",
        "HERMIONE:\n",
        "CLAU",
        "CLAUD",
        "CLAUDIO:\n",
        "sci",
        "matter",
        "bour",
        "help",
        "usur",
        "smi",
        "low",
        "fore",
        "Make ",
        "is\n",
        "fav",
        "o,\n",
        "ed.\n\n",
        "s!\n\n",
        "Aufidi",
        "Being ",
        "place ",
        "people ",
        "sworn ",
        "ir\n",
        "after",
        "dro",
        "thank",
        "sir,\n",
        "quick",
        "Pray ",
        "ment,\n",
        "ea, ",
        "something ",
        "oura",
        "mann",
        "ence\n",
        "mai",
        "shame ",
        "soon ",
        "trou",
        "mble ",
        "yourself",
        "Say ",
        "read ",
        "lord; ",
        "earth ",
        "ke,\n",
        "hands ",
        "husband ",
        "her.\n\n",
        "Per",
        "gone ",
        "ious ",
        "efor",
        "Henr",
        "aun",
        "Sir ",
        "grief ",
        "LOR",
        "LORD",
        "to-morrow",
        "JO",
        "Trani",
        "Petruchi",
        "MIRAN",
        "MIRAND",
        "MIRANDA:\n",
        "thor",
        "yield ",
        "kne",
        "deliver",
        "bell",
        "affec",
        "ly\n",
        "mbl",
        "es. ",
        "Tu",
        "him: ",
        "enter",
        ".'\n\n",
        "fiel",
        "t: ",
        "born ",
        "swear",
        "brave ",
        "looks ",
        "deep ",
        "inter",
        "d? ",
        "ted\n",
        "'twas ",
        "ump",
        "liber",
        "seek ",
        "fearful ",
        "Sta",
        "day, ",
        "she's ",
        "stea",
        "Clarence ",
        "Rich",
        "England",
        "kiss ",
        "PRINCE ",
        "Herefor",
        "satis",
        "JOH",
        "JOHN",
        "SON",
        "SON:\n",
        "Spea",
        "ance",
        "gods ",
        "ge.\n\n",
        "known ",
        "ink",
        "med ",
        "plain",
        "ers, ",
        "vanta",
        "cry ",
        "oop",
        "tribun",
        "Since ",
        "betwe",
        "bed ",
        "Me",
        "That's ",
        "counter",
        "thee\n",
        "befor",
        "'twere ",
        "ture ",
        "loved ",
        "Coriol",
        "Coriolan",
        "cess",
        "free ",
        "it. ",
        "kna",
        "welcome ",
        "sight",
        "what",
        "anci",
        "blow",
        "led",
        "tal ",
        "Therefore ",
        "withal",
        "law ",
        "Mer",
        "years ",
        "er's ",
        "kno",
        "es.\n",
        "sun ",
        "y'd ",
        "Tow",
        "BU",
        "Richmon",
        "gentleman ",
        "baw",
        "Before ",
        "try ",
        "suit",
        "want",
        "sh, ",
        "but, ",
        "evi",
        "tion.\n\n",
        "time\n",
        "rec",
        "together",
        "Such ",
        "re,\n",
        "ned ",
        "Let's ",
        "person",
        "look'd ",
        "lady ",
        "brie",
        "fect ",
        "le:\n",
        "dare ",
        "t.\n",
        "late ",
        "gave ",
        "desire ",
        "ty, ",
        "est\n",
        "ll'd ",
        "be, ",
        "respe",
        "me:\n",
        "fres",
        "king's ",
        "Margar",
        "lost ",
        "CAT",
        "CATES",
        "CATESBY:\n",
        "Lon",
        "LORD ",
        "NT:\n",
        "IT",
        "AG",
        "CA:\n",
        "All",
        "miser",
        "become ",
        "supp",
        "thus",
        "you'll ",
        "sma",
        "Because ",
        "mark ",
        "Their ",
        "ties ",
        "sing",
        "Roman",
        "ch\n",
        "husban",
        "hither ",
        "pluck ",
        "fool",
        "power",
        "With",
        "Call ",
        "given ",
        "d?\n",
        "therefore, ",
        "de,\n",
        "die",
        "el ",
        "rever",
        "esti",
        "victor",
        "e!\n\n",
        "cat",
        "in'd ",
        "Whom ",
        "truth ",
        "scor",
        "love,\n",
        "draw",
        "past ",
        "f, ",
        "peace",
        "cold ",
        "bol",
        "wife, ",
        "thyself",
        "Kee",
        "life,\n",
        "hoo",
        "go, ",
        "GREY:\n",
        "Look ",
        "morrow ",
        "married ",
        "procla",
        "Bap",
        "Bapti",
        "'t, ",
        "pat",
        "us\n",
        "wal",
        "city ",
        "ds\n",
        "sit",
        "sty ",
        "fight ",
        "vali",
        "de, ",
        "LIA:\n",
        "dies ",
        "sudd",
        "Loo",
        "ali",
        "took ",
        "lst ",
        "friend ",
        "serve ",
        "o'er ",
        "vow",
        "ing: ",
        "reason ",
        "Must ",
        "often ",
        "ent, ",
        "my\n",
        "deser",
        "horse",
        "eye ",
        "ely ",
        "l:\n",
        "cep",
        "div",
        "dishon",
        "sup",
        "Unless ",
        "drun",
        "Ge",
        "Geor",
        "BRA",
        "secre",
        "Saint ",
        "gover",
        "RIV",
        "RIVER",
        "RIVERS:\n",
        "ings, ",
        "ing-",
        "duke",
        "JOHN ",
        "BAL",
        "Romeo, ",
        "Isa",
        "BIAN",
        "BIANCA:\n",
        "report ",
        "t! ",
        "clu",
        "Tru",
        "who",
        "grave ",
        "blood,\n",
        "Rome ",
        "another",
        "know\n",
        "'s\n",
        "ves, ",
        "cowar",
        "sigh",
        "wall",
        "strange ",
        "Ere ",
        "'ld ",
        "test ",
        "dest ",
        "wonder",
        "dru",
        "AL",
        "you; ",
        "hell",
        "charge ",
        "stands ",
        "Well ",
        "sed, ",
        "princely ",
        "all.\n\n",
        "home ",
        "Yes, ",
        "triump",
        "fles",
        "gue ",
        "so,\n",
        "En",
        "sum",
        "pie",
        "nature ",
        "beggar",
        "e!\n",
        "death.\n\n",
        "him;\n",
        "mother, ",
        "rt ",
        "rar",
        "ima",
        "Lancaster",
        "provo",
        "York ",
        "Ex",
        "Ch",
        "GAU",
        "GAUNT:\n",
        "ina",
        "ELB",
        "ELBOW",
        "ELBOW:\n",
        "Marcius ",
        "ect ",
        "common",
        "well; ",
        "He's ",
        "honest ",
        "fellow ",
        "tions ",
        "tion,\n",
        "gs ",
        "wis",
        "days ",
        "ether ",
        "emb",
        "him; ",
        "bound ",
        "found ",
        "tro",
        "heaven, ",
        "ons ",
        "place",
        "neither ",
        "cea",
        "ta'",
        "tim",
        "y? ",
        "oc",
        "enough ",
        "appro",
        "essed ",
        "know, ",
        "widow",
        "them.\n\n",
        "wan",
        "having ",
        "mortal ",
        "entreat ",
        "pass ",
        "return",
        "here,\n",
        "again.\n\n",
        "Lest ",
        "bosom",
        "trust ",
        "sting ",
        "name, ",
        "rah, ",
        "near ",
        "dow ",
        "mighty ",
        "slaught",
        "nar",
        "hours ",
        "Chri",
        "Ox",
        "Oxfor",
        "title ",
        "kins",
        "TY",
        "AM",
        "MONT",
        "MONTAG",
        "MONTAGU",
        "MONTAGUE:\n",
        "3 ",
        "VI\n\n",
        "Hor",
        "Horten",
        "Hortensi",
        "mali",
        "t-",
        "side ",
        "speak, ",
        "bli",
        "shed ",
        "more\n",
        "inf",
        "natura",
        "wise ",
        "win ",
        "ff ",
        "tter, ",
        "flatter",
        "sts ",
        "man's ",
        "ours ",
        "sever",
        "out\n",
        "thre",
        "Vols",
        "face",
        "bre",
        "one\n",
        "ring ",
        "cked ",
        "m,\n",
        "children ",
        "ph",
        "cher",
        "cell",
        "horse ",
        "l\n",
        "shep",
        "shepher",
        "threa",
        "here's ",
        "to-night",
        "de.\n\n",
        "pair ",
        "earth",
        "tters ",
        "ks, ",
        "stom",
        "air",
        "either ",
        "tting ",
        "force ",
        "ult ",
        "son,\n",
        "How",
        "Pea",
        "yiel",
        "chur",
        "tyran",
        "ried ",
        "Farewell, ",
        "joy",
        "in,\n",
        "possi",
        "remember ",
        "ala",
        "marry ",
        "Edward, ",
        "beauty ",
        "Northu",
        "Northumber",
        "ates",
        "fle",
        "next ",
        "Doth ",
        "cousin, ",
        "cle, ",
        "Bohe",
        "Bohemi",
        "Pompe",
        "Kath",
        "Kathar",
        "Bianca",
        "proce",
        "ger ",
        "peti",
        "come.\n\n",
        "gri",
        "business ",
        "care ",
        "pretty ",
        "trump",
        "por",
        "strong",
        "counsel",
        "fac",
        "almost ",
        "rich ",
        "Fi",
        "dom",
        "vol",
        "ets ",
        "doubt ",
        "chance ",
        "VIR",
        "VIRG",
        "VIRGI",
        "VIRGILIA:\n",
        "Swee",
        "gone, ",
        "We'll ",
        "you: ",
        "fetch ",
        "done, ",
        "for\n",
        "sper",
        "repor",
        "heart\n",
        "Al",
        "sel ",
        "blu",
        "l.\n\n",
        "ask ",
        "dit",
        "too, ",
        "grant ",
        "ancient ",
        "plan",
        "spa",
        "nor",
        "m.\n\n",
        "me?\n\n",
        "live, ",
        "inno",
        "near",
        "Speak ",
        "lawful ",
        "move ",
        "ad ",
        "honest",
        "Mi",
        "hand, ",
        "see, ",
        "appar",
        "him.\n",
        "heir",
        "Richard, ",
        "lord?\n\n",
        "time, ",
        "world,\n",
        "drow",
        "AT",
        "QUEEN:\n",
        "PERD",
        "PERDIT",
        "PERDITA:\n",
        "ERD",
        "Marcius",
        "content ",
        "thes",
        "Wor",
        "strong ",
        "breath",
        "arm ",
        "general ",
        "dig",
        "That, ",
        "bb",
        "throw ",
        "strike ",
        "beh",
        "forth",
        "gir",
        "between ",
        "embra",
        "but\n",
        "behol",
        "if\n",
        "stir",
        "in.\n\n",
        "want ",
        "love.\n\n",
        "buy ",
        "open ",
        "ves,\n",
        "pp'd ",
        "sound",
        "nu",
        "fly ",
        "form ",
        "Which, ",
        "how",
        "now\n",
        "itself",
        "sleep ",
        "ches ",
        "matter ",
        "go.\n\n",
        "me! ",
        "die.\n\n",
        "there, ",
        "There's ",
        "ck\n",
        "woman ",
        "sed\n",
        "your\n",
        "again,\n",
        "curse",
        "soun",
        "contin",
        "respec",
        "Here's ",
        "an, ",
        "groun",
        "ent,\n",
        "goodly ",
        "se;\n",
        "ness, ",
        "have",
        "straight",
        "te, ",
        "sad ",
        "ies ",
        "tar",
        "per ",
        "goes ",
        "Lo",
        "Alas, ",
        "loy",
        "chang",
        "Clarence, ",
        "Paul",
        "Henry's ",
        "England's ",
        "SET:\n",
        "land, ",
        "day.\n\n",
        "Master ",
        "Away ",
        "women ",
        "Isabe",
        "MARIAN",
        "MARIANA:\n",
        "SL",
        "SLY:\n",
        "speak.\n\n",
        "citi",
        "citizen",
        "parti",
        "good\n",
        "ous",
        "consci",
        "eni",
        "up, ",
        "ute ",
        "bold ",
        "attend ",
        "people",
        "low ",
        "So, ",
        "like",
        "needs ",
        "appear",
        "meet",
        "yourself ",
        "me. ",
        "Hea",
        "run ",
        "shall",
        "return ",
        "fing",
        "indeed, ",
        "Ver",
        "Pri",
        "spoke ",
        "less",
        "Ra",
        "shap",
        "Or",
        "wast ",
        "Look, ",
        "sound ",
        "lec",
        "der, ",
        "condem",
        "Thou",
        "pay ",
        "pose ",
        "t. ",
        "ended ",
        "as\n",
        "loves ",
        "morn",
        "spec",
        "worth ",
        "ach",
        "thir",
        "grave",
        "While ",
        "shee",
        "deserved ",
        "see\n",
        "Both ",
        "call'd ",
        "oursel",
        "Watch",
        "ignor",
        "saf",
        "Af",
        "l'd ",
        "up,\n",
        "p, ",
        "ye ",
        "sion",
        "loss ",
        "extre",
        "hadst ",
        "well: ",
        "what, ",
        "ined ",
        "mistress ",
        "she",
        "desper",
        "oath ",
        "cess ",
        "duty ",
        "black ",
        "Plan",
        "Planta",
        "dead, ",
        "queen, ",
        "it: ",
        "Le",
        "Ear",
        "PARI",
        "PARIS:\n",
        "Juliet",
        "Padu",
        "Gremi",
        "Gru",
        "Grumi",
        "they\n",
        "friends, ",
        "I' ",
        "mini",
        "quo",
        "all\n",
        "point ",
        "it.\n",
        "Too ",
        "held ",
        "along",
        "ence; ",
        "valiant ",
        "prepar",
        "you:\n",
        "town",
        "war ",
        "whence ",
        "love\n",
        "man\n",
        "ther.\n\n",
        "madam, ",
        "Say, ",
        "hund",
        "viol",
        "merry ",
        "gentlemen",
        "ue ",
        "ment\n",
        "cal",
        "you;\n",
        "begin ",
        "De",
        "toward ",
        "weal",
        "ass",
        "sician",
        "tive ",
        "Master",
        "do, ",
        "be,\n",
        "blo",
        "priv",
        "twi",
        "bid",
        "ste ",
        "traitor ",
        "mercy ",
        "pair",
        "sea ",
        "foot ",
        "fru",
        "banish'd ",
        "decei",
        "til ",
        "heavens ",
        "dful ",
        "Yea, ",
        "slew ",
        "cheer",
        "golden ",
        "Pr",
        "land,\n",
        "sons ",
        "wert ",
        "cousin ",
        "good",
        "seems ",
        "se.\n",
        "crown,\n",
        "Gaun",
        "PETER:\n",
        "o?\n\n",
        "Kate, ",
        "ty.\n\n",
        "'s, ",
        "yoursel",
        "alread",
        "you. ",
        "ily ",
        "Unto ",
        "unt",
        "tin",
        "What",
        "See ",
        "ch,\n",
        "this?\n\n",
        "est,\n",
        "il, ",
        "have, ",
        "fire ",
        "justice ",
        "sho",
        "ce: ",
        "pray, ",
        "general",
        "hence, ",
        "think, ",
        "blood\n",
        "Sweet ",
        "LAR",
        "LART",
        "LARTIUS:\n",
        "feel ",
        "Or, ",
        "uncle ",
        "big",
        "base ",
        "dangerous ",
        "gui",
        "sli",
        "person ",
        "country's ",
        "dispo",
        "ant, ",
        "cover",
        "Therefore, ",
        "wouldst ",
        "th:\n",
        "adver",
        "honoura",
        "coming ",
        "heal",
        "noble",
        "knowled",
        "well-",
        "urn ",
        "by, ",
        "straight ",
        "breath ",
        "sure, ",
        "match",
        "dieu",
        "indeed ",
        "moun",
        "Could ",
        "for, ",
        "fault ",
        "foun",
        "ble, ",
        "t'st ",
        "vel ",
        "obedi",
        "des ",
        "cure ",
        "said, ",
        "ston",
        "now,\n",
        "strength ",
        "conqu",
        "Ab",
        "a-",
        "Fri",
        "in:\n",
        "To-",
        "because ",
        "ths ",
        "nay, ",
        "faith, ",
        "hap",
        "fresh ",
        "mista",
        "Welcome, ",
        "DOR",
        "Cates",
        "pale ",
        "rew ",
        "ly,\n",
        "Stan",
        "marriage",
        "Earl ",
        "Ro",
        "Bar",
        "Capu",
        "Watchman:\n",
        "Clifford, ",
        "LEW",
        "LEWIS",
        "LEWIS ",
        "XI:\n",
        "Ped",
        "ARIEL:\n",
        "Fir",
        "First, ",
        "t?\n\n",
        "ally ",
        "ors ",
        "arms ",
        "neigh",
        "lander",
        "eat ",
        "bour ",
        "For, ",
        "fit",
        "awhi",
        "quoth ",
        "remember",
        "bene",
        "Lea",
        "'em",
        "king\n",
        "defend ",
        "greater ",
        "ty,\n",
        "ds.\n\n",
        "shall\n",
        "known",
        "him:\n",
        "schoo",
        "yet, ",
        "un ",
        "excu",
        "wish",
        "Within ",
        "hearts ",
        "Pla",
        "gates ",
        "st;\n",
        "mark",
        "is't ",
        "sword ",
        "me?\n",
        "soldier",
        "ta'en ",
        "wounds ",
        "you.\n",
        "tent",
        "mine, ",
        "lamb",
        "touch ",
        "sy ",
        "nobl",
        "cuti",
        "this\n",
        "better",
        "Fai",
        "Faith, ",
        "further ",
        "deter",
        "maz",
        "Man",
        "deny ",
        "honour, ",
        "towards ",
        "deni",
        "piece ",
        "still",
        "pun",
        "se. ",
        "way",
        "ught ",
        "depo",
        "ses",
        "bastar",
        "vy ",
        "oft ",
        "sir! ",
        "witness ",
        "simp",
        "lament",
        "bids ",
        "pursu",
        "consent",
        "watch ",
        "sister ",
        "weep ",
        "boy, ",
        "old, ",
        "Bro",
        "abro",
        "or, ",
        "sain",
        "cursed ",
        "just ",
        "p-",
        "innoc",
        "day,\n",
        "gall",
        "now! ",
        "Joh",
        "mad ",
        "order",
        "Mow",
        "Mowbra",
        "Aumer",
        "music ",
        "Keeper",
        "Keeper:\n",
        "SAM",
        "SAMP",
        "SAMPSON:\n",
        "Capule",
        "Tybalt, ",
        "lo ",
        "CUR",
        "CURTI",
        "CURTIS:\n",
        "Pedant:\n",
        "All:\n",
        "accoun",
        "revenge ",
        "ck,\n",
        "Either ",
        "it;\n",
        "sir: ",
        "answer",
        "lun",
        "'re ",
        "man,\n",
        ".' ",
        "virtue ",
        "e?\n",
        "broke ",
        "glad ",
        "ther\n",
        "on: ",
        "cir",
        "here\n",
        "consi",
        "faith",
        "whether ",
        "moo",
        "ly",
        "mine.\n\n",
        "hundred ",
        "pin",
        "Lad",
        "issue ",
        "wra",
        "ed.\n",
        "hee",
        "en,\n",
        "stro",
        "mur",
        "dri",
        "away.\n\n",
        "well.\n",
        "vantage ",
        "never",
        "bad ",
        "life\n",
        "shows ",
        "hard ",
        "certain ",
        "Plea",
        "quickly ",
        "Fear ",
        "hide ",
        "soo",
        "percei",
        "butch",
        "prayers ",
        "tten ",
        "pleasure ",
        "sir?\n\n",
        "deadly ",
        "ter, ",
        "sovereign ",
        "expe",
        "Dea",
        "heart,\n",
        "pul",
        "ques",
        "purpose ",
        "ves\n",
        "ted, ",
        "itself ",
        "service ",
        "lips ",
        "precious ",
        "may, ",
        "Think ",
        "Citizens:\n",
        "arri",
        "judg",
        "five ",
        "friends,\n",
        "spr",
        "water ",
        "change",
        "children",
        "plo",
        "Peace, ",
        "sei",
        "gone.\n\n",
        "warran",
        "er-",
        "ation ",
        "out.\n\n",
        "above ",
        "blessed ",
        "Ba",
        "myself,\n",
        "within",
        "thyself ",
        "quarrel ",
        "heir ",
        "ful, ",
        "ly.\n",
        "tom",
        "is.\n\n",
        "Sirrah, ",
        "case ",
        "lod",
        "pleasure",
        "BUR",
        "BURY:\n",
        "Poor ",
        "fat",
        "beaut",
        "learn ",
        "hand,\n",
        "it?\n\n",
        "Hastings, ",
        "liege, ",
        "night, ",
        "satisfi",
        "depu",
        "face,\n",
        "usurp",
        "dres",
        "EX",
        "Mercuti",
        "Apo",
        "omer",
        "ANTI",
        "ANTIGON",
        "ANTIGONUS:\n",
        "Angelo ",
        "Vin",
        "Baptista",
        "author",
        "suffer",
        "ways ",
        "bat",
        "them\n",
        "curse ",
        "provi",
        "le: ",
        "more.\n\n",
        "head, ",
        "ouch",
        "le.\n",
        "desi",
        "swi",
        "lack ",
        "Comini",
        "arti",
        "worse ",
        "hearing ",
        "zen ",
        "feit ",
        "Lady ",
        "deed, ",
        "re.\n\n",
        "bless ",
        "sole",
        "met ",
        "wind ",
        "second ",
        "foolish ",
        "conve",
        "le; ",
        "alone",
        "direc",
        "air ",
        "ts,\n",
        "come; ",
        "ous, ",
        "ian",
        "fully ",
        "Made ",
        "soft ",
        "condi",
        "hot ",
        "lous ",
        "letters ",
        "Rome, ",
        "mper",
        "forge",
        "wound",
        "stin",
        "venge",
        "harm",
        "ent\n",
        "thed ",
        "wn ",
        "teen ",
        "measure ",
        "Put ",
        "four",
        "chol",
        "laid ",
        "'Twas ",
        "!' ",
        "Stand ",
        "rage ",
        "thro",
        "contra",
        "promise ",
        "maid ",
        "imag",
        "grown ",
        "mbling ",
        "down, ",
        "child ",
        "k.\n\n",
        "living ",
        "nurse, ",
        "ground ",
        "tale ",
        "yself ",
        "sick",
        "kill'd ",
        "loa",
        "him?\n\n",
        "kingdom ",
        "vest ",
        "t?\n",
        "guilty ",
        "GLOUCESTER:\n\n",
        "her\n",
        "Will",
        "RAT",
        "RATCLIFF",
        "RATCLIFF:\n",
        "subject ",
        "English ",
        "Henry, ",
        "Norfolk, ",
        "join",
        "sight ",
        "Katharin",
        "ity, ",
        "him. ",
        "slander",
        "cing ",
        "rema",
        "heart, ",
        "then?\n\n",
        "upon",
        "small ",
        "bran",
        "Than",
        "Des",
        "are\n",
        "Under ",
        "ag",
        "hang ",
        "perform",
        "Besid",
        "four ",
        "missi",
        "Corio",
        "Corioli",
        "man.\n\n",
        "Hear ",
        "visit ",
        "school",
        "counten",
        "was, ",
        "fr",
        "prithee, ",
        "yond ",
        "souls ",
        "ble\n",
        "would\n",
        "god",
        "out, ",
        "yon",
        "st; ",
        "willing",
        "'d; ",
        "Ho",
        "est.\n\n",
        "ing; ",
        "way\n",
        "occa",
        "say\n",
        "stood ",
        "ary ",
        "ous\n",
        "triumph",
        "lady, ",
        "welcom",
        "ari",
        "white ",
        "office ",
        "confess ",
        "remain",
        "fy ",
        "here.\n\n",
        "not: ",
        "se; ",
        "that?\n\n",
        "so? ",
        "forget ",
        "Mine ",
        "od",
        "cti",
        "boun",
        "crave ",
        "rough",
        "due ",
        "full",
        "kept ",
        "do\n",
        "rememb",
        "ed;\n",
        "our'd ",
        "behold ",
        "ouri",
        "ope ",
        "Can",
        "conclu",
        "do.\n\n",
        "!'\n",
        "dent ",
        "hood ",
        "rup",
        "r'd ",
        "throw",
        "so; ",
        "los",
        "Yet, ",
        "Awa",
        "ence.\n\n",
        "cun",
        "not; ",
        "ends ",
        "fast ",
        "passi",
        "hope",
        "wedd",
        "ilor",
        "wrong ",
        "acqu",
        "book ",
        "groan",
        "weak ",
        "keep",
        "'d.\n",
        "wing",
        "mbly ",
        "Clarence",
        "queen's ",
        "close ",
        "leis",
        "tless ",
        "eous ",
        "Rut",
        "shar",
        "affor",
        "se:\n",
        "kest ",
        "dream ",
        "soul,\n",
        "t!\n",
        "order ",
        "good, ",
        "BIS",
        "BISH",
        "BISHOP",
        "BISHOP ",
        "Thom",
        "prince, ",
        "or:\n",
        "uncle, ",
        "cast",
        "say.\n\n",
        "early ",
        "desc",
        "STAN",
        "STANLE",
        "STANLEY:\n",
        "house,\n",
        "wil",
        "villa",
        "earth,\n",
        "ion ",
        "night\n",
        "TYBAL",
        "TYBALT:\n",
        "PRINCE:\n",
        "Mantu",
        "father.\n\n",
        "Tybalt ",
        "Vincenti",
        "Cai",
        "s't ",
        "dic",
        "lieve ",
        "lean",
        "sof",
        "titu",
        "Men",
        "too.\n\n",
        "course ",
        "cking ",
        "pier",
        "foll",
        "cup",
        "sick ",
        "sua",
        "choi",
        "preva",
        "I'ld ",
        "thou\n",
        "es?\n\n",
        "Na",
        "mock ",
        "ded\n",
        "s'd ",
        "remo",
        "tender",
        "womb",
        "youth ",
        "k\n",
        "Methinks ",
        "mn",
        "He",
        "both",
        "tee",
        "om\n",
        "mir",
        "ils ",
        "offic",
        "news?\n\n",
        "done,\n",
        "lords ",
        "st?\n\n",
        "Anti",
        "condu",
        "Please ",
        "mest ",
        "not,\n",
        "cruel ",
        "sage ",
        "two",
        "chamber",
        "worship",
        "prosper",
        "deeds ",
        "Comm",
        "'d: ",
        "made\n",
        "vengeance ",
        "'twixt ",
        "teous ",
        "leng",
        "battle ",
        "pet",
        "stoo",
        "sely ",
        "Bid ",
        "die, ",
        "humble ",
        "ves.\n\n",
        "speech",
        "cy ",
        "After ",
        "ity,\n",
        "abu",
        "now.\n\n",
        "te,\n",
        "enter ",
        "fran",
        "Hel",
        "house, ",
        "infec",
        "glas",
        "church",
        "men\n",
        "despair",
        "mayst ",
        "love's ",
        "Here, ",
        "Once ",
        "knock ",
        "news, ",
        "come\n",
        "ised ",
        "contrar",
        "stant ",
        "like, ",
        "bite ",
        "pare ",
        "affair",
        "eyes,\n",
        "thoughts ",
        "mother's ",
        "'st, ",
        "honour,\n",
        "Art ",
        "cept ",
        "s-",
        "highness ",
        "Mistres",
        "BRAK",
        "BRAKEN",
        "BRAKENBURY:\n",
        "impri",
        "secret ",
        "gho",
        "weary ",
        "suppo",
        "slain ",
        "Dost ",
        "breathe ",
        "Clifford ",
        "father,\n",
        "y?\n",
        "prote",
        "marry, ",
        "bitter ",
        "al, ",
        "piti",
        "'d;\n",
        "queen,\n",
        "shin",
        "murder ",
        "counsel ",
        "sovereign, ",
        "stly ",
        "ming ",
        "Stanle",
        "forward ",
        "Tw",
        "lest ",
        "mad",
        "villain ",
        "THOM",
        "THOMA",
        "spur",
        "sac",
        "sacred ",
        "amaz",
        "le-",
        "eyes\n",
        "winter",
        "wench",
        "master, ",
        "Veron",
        "her,\n",
        "Somer",
        "Kate ",
        "word, ",
        "rician",
        "st: ",
        "Capit",
        "here?\n\n",
        "Meneni",
        "always ",
        "senat",
        "or\n",
        "rest, ",
        "hear, ",
        "instruc",
        "envi",
        "eye,\n",
        "natural ",
        "You, ",
        "all,\n",
        "ing. ",
        "ness\n",
        "vile ",
        "clin",
        "home, ",
        "See, ",
        "equ",
        "n\n",
        "Ti",
        "ts\n",
        "think\n",
        "certain",
        "assi",
        "press ",
        "abs",
        "iness ",
        "reti",
        "a,\n",
        "it; ",
        "stit",
        "Fie, ",
        "truth, ",
        "jest ",
        "is: ",
        "will\n",
        "blow ",
        "shame",
        "them,\n",
        "fli",
        "I.\n\n",
        "who, ",
        "Pi",
        "Whilst ",
        "oppo",
        "cli",
        "truth",
        "ded,\n",
        "dispatch",
        "Offi",
        "Having ",
        "sign ",
        "'gainst ",
        "consent ",
        "faced ",
        "time,\n",
        "te\n",
        "cried ",
        "jour",
        "angry ",
        "grow ",
        "abi",
        "amb",
        "roar",
        "ck-",
        "faith ",
        "cr",
        "fill",
        "mili",
        "suit ",
        "les, ",
        "ker",
        "determin",
        "zed ",
        "struck ",
        "sudden ",
        "flesh ",
        "sake, ",
        "conscience ",
        "divin",
        "adieu",
        "tune ",
        "practi",
        "warm ",
        "heart.\n\n",
        "bears ",
        "Qu",
        "How! ",
        "plain ",
        "choose ",
        "he'll ",
        "speaks ",
        "over-",
        "despit",
        "shake ",
        "Out ",
        "onoun",
        "death.\n",
        "sted ",
        "langu",
        "Ac",
        "life.\n\n",
        "teach ",
        "ei",
        "true, ",
        "ance, ",
        "heads ",
        "ved\n",
        "fond ",
        "thru",
        "quite ",
        "lady's ",
        "entertain",
        "sir? ",
        "ddle ",
        "dog",
        "stop ",
        "ce;\n",
        "ty\n",
        "Without ",
        "summ",
        "point",
        "mine,\n",
        "haste ",
        "mean, ",
        "Ja",
        "thee.\n",
        "ench ",
        "st. ",
        "tyrann",
        "jea",
        "woman's ",
        "morning ",
        "few ",
        "hat\n",
        "n.\n\n",
        "majesty ",
        "new-",
        "George ",
        "widow ",
        "ment.\n\n",
        "reign",
        "devil",
        "Plantagen",
        "cheek",
        "DER",
        "DERBY:\n",
        "men's ",
        "quiet ",
        "Hi",
        "longer ",
        "age,\n",
        "Christi",
        "night,\n",
        "son.\n\n",
        "friend,\n",
        "impor",
        "London",
        "orac",
        "fear, ",
        "morrow, ",
        "Thomas ",
        "London ",
        "ending ",
        "to-morrow ",
        "speed ",
        "wonder ",
        "Cou",
        "Bon",
        "promised ",
        "none",
        "om, ",
        "offer ",
        "pleas",
        "GREG",
        "GREGOR",
        "GREGORY:\n",
        "lix",
        "worship ",
        "urs",
        "bride",
        "Musician",
        "Sici",
        "Lew",
        "Lewis ",
        "Apoll",
        "MIST",
        "MISTR",
        "MISTRESS ",
        "OV",
        "OVERD",
        "OVERDONE:\n",
        "Barnar",
        "Tranio, ",
        "Petruchio, ",
        "Res",
        "Caius ",
        "ef ",
        "enemy ",
        "ce.\n",
        "Capitol",
        "do,\n",
        "well\n",
        "tran",
        "suffer ",
        "idle ",
        "minister",
        "eter",
        "former ",
        "is,\n",
        "rasca",
        "worst ",
        "enti",
        "of, ",
        "passing ",
        "Where's ",
        "by\n",
        "well,\n",
        "fashi",
        "circu",
        "enem",
        "won ",
        "died ",
        "their\n",
        "myself.\n\n",
        "Indeed, ",
        "mp ",
        ":' ",
        "Away, ",
        "fell ",
        "ck.\n\n",
        "VAL",
        "VALER",
        "VALERIA:\n",
        "fine ",
        "tear ",
        "es' ",
        "excell",
        "thy\n",
        "farewell.\n\n",
        "done.\n\n",
        "ongst ",
        "noise ",
        "sou",
        "behin",
        "ds:\n",
        "phy",
        "ed,\n",
        "forced ",
        "appear ",
        "exi",
        "sad",
        "disposi",
        "shouldst ",
        ".'\n",
        "themselves ",
        "at\n",
        "mour ",
        "thee: ",
        "speci",
        "son\n",
        "honourable ",
        "true.\n\n",
        "gives ",
        "so\n",
        "dark ",
        "cast ",
        "Into ",
        "agre",
        "wanton ",
        "manner ",
        "beg ",
        "ders ",
        "dry ",
        "consul",
        "diff",
        "eyes, ",
        "chief",
        "amp",
        "honour.\n\n",
        "ces, ",
        "wit ",
        "voices ",
        "wash ",
        "standing ",
        "virtuous ",
        "claim ",
        "so: ",
        "ach ",
        "pal",
        "mid",
        "officer",
        "pala",
        "courtes",
        "deman",
        "eal ",
        "AE",
        "peace, ",
        "friend, ",
        "scorn ",
        "mil",
        "which, ",
        "head,\n",
        "fiery ",
        "asle",
        "death\n",
        "men.\n\n",
        "note ",
        "plague ",
        "poster",
        "ity\n",
        "Grea",
        "dur",
        "whilst ",
        "forwar",
        "be.\n\n",
        "ble.\n\n",
        "Car",
        "man; ",
        "tation ",
        "fire",
        "dinn",
        "execution",
        "grand",
        "kneel ",
        "she, ",
        "drink ",
        "mercy, ",
        "tid",
        "spira",
        "resolu",
        "offence",
        "Myself ",
        "prophe",
        "fatal ",
        "wretched ",
        "presence ",
        "bless",
        "ange",
        "leisure ",
        "ing.\n",
        "hope, ",
        "What! ",
        "sbur",
        "royal",
        "ill-",
        "River",
        "rew",
        "nal ",
        "tedi",
        "ging ",
        "spirit ",
        "stay.\n\n",
        "ola",
        "spici",
        "desperate ",
        "post ",
        "proo",
        "CH",
        "hither, ",
        "master's ",
        "Gra",
        "woe ",
        "El",
        "spar",
        "wherefore ",
        "scep",
        "weeping ",
        "ey ",
        "rid ",
        "RR",
        "or,\n",
        "Heaven ",
        "doom",
        "RICHM",
        "RICHMON",
        "RICHMOND:\n",
        "OX",
        "OXF",
        "OXFORD:\n",
        "oath",
        "Bolingbroke ",
        "strange",
        "Vi",
        "friar, ",
        "Thurs",
        "Musician:\n",
        "AS",
        "a.\n\n",
        "SOM",
        "SOMER",
        "SOMERSET:\n",
        "Hermi",
        "an\n",
        "Very ",
        "country ",
        "ure, ",
        "e? ",
        "state, ",
        "spor",
        "wars ",
        "must\n",
        "ous,\n",
        "it:\n",
        "whole ",
        "ste",
        "eri",
        "deliver ",
        "le;\n",
        "diss",
        "opini",
        "word.\n\n",
        "several ",
        "bili",
        "persua",
        "il'd ",
        "Marcius, ",
        "ers,\n",
        "disda",
        "Besides, ",
        "aught ",
        "act ",
        "circum",
        "lead ",
        "daughter, ",
        "table ",
        "husband, ",
        "therein ",
        "bly ",
        "Aufidius ",
        "shall, ",
        "labour",
        "yar",
        "night.\n\n",
        "herea",
        "half",
        "march ",
        "k! ",
        "work ",
        "Roman:\n",
        "bleed",
        "succes",
        "coul",
        "tongue\n",
        "will.\n\n",
        "to, ",
        "Wherein ",
        "weigh",
        "guar",
        "Never ",
        "er;\n",
        "le. ",
        "sanc",
        "privi",
        "there,\n",
        "wol",
        "least ",
        "in't",
        "head\n",
        "miss ",
        "necess",
        "encoun",
        "encounter ",
        "ladi",
        "boy ",
        "hath\n",
        "ton",
        "Has ",
        "seven ",
        "leaves ",
        "renown",
        "among ",
        "temper",
        "them; ",
        "Offic",
        "Officer:\n",
        "differ",
        "people,\n",
        "jur",
        "Leave ",
        "blows ",
        "stay, ",
        "down.\n\n",
        "unt ",
        "terr",
        "blood, ",
        "petu",
        "give",
        "commend ",
        "voices",
        "Pray, ",
        "trouble ",
        "yours ",
        "wisdom ",
        "need",
        "calls ",
        "n,\n",
        "spake ",
        "ted.\n\n",
        "tempt ",
        "twice ",
        "Who, ",
        "king;\n",
        "remembran",
        "top",
        "Co",
        "poison ",
        "tes ",
        "se: ",
        "law,\n",
        "es!\n\n",
        "him!\n\n",
        "weap",
        "pronoun",
        "tic",
        "heart's ",
        "world.\n\n",
        "burn ",
        "there.\n\n",
        "this,\n",
        "claim",
        "going ",
        "presently ",
        "ents ",
        "ling",
        "banish ",
        "wail ",
        "forgot ",
        "divi",
        "bed, ",
        "were, ",
        "bitter",
        "avo",
        "command ",
        "quit ",
        "revenge",
        "together ",
        "twel",
        "peri",
        "six ",
        "ball",
        "deep",
        "soldiers ",
        "design",
        "ed:\n",
        "llow, ",
        "child, ",
        "part, ",
        "fro",
        "soon",
        "holds ",
        "stoop",
        "ho! ",
        "clouds ",
        "bosom ",
        "dreadful ",
        "Alack, ",
        "she\n",
        "betwixt ",
        "herself",
        "bb'd ",
        "imprison",
        "timely ",
        "Cur",
        "light,\n",
        "ew ",
        "earth, ",
        "live.\n\n",
        "damned ",
        "wicked ",
        "humbly ",
        "again, ",
        "penit",
        "duk",
        "simple ",
        "queen.\n\n",
        "king:\n",
        "pain ",
        "soul\n",
        "thee;\n",
        "set, ",
        "wither",
        "Margaret",
        "alli",
        "broken ",
        "open",
        "Tut, ",
        "thee?\n\n",
        "Happ",
        "govern",
        "dead.\n\n",
        "bs ",
        "York, ",
        "fares ",
        "France ",
        "Hereford, ",
        "fon",
        "neg",
        "kingly ",
        "swift ",
        "age:\n",
        "woo ",
        "marriage ",
        "lands ",
        "highness",
        "there?\n\n",
        "Oxford, ",
        "nea",
        "John ",
        "THOMAS ",
        "MOW",
        "MOWBRA",
        "MOWBRAY:\n",
        "ax",
        "Am ",
        "Bolingbroke",
        "BUS",
        "BUSH",
        "BUSHY:\n",
        "Lady:\n",
        "nur",
        "EXET",
        "EXETER:\n",
        "suffi",
        "MA",
        "MAMIL",
        "MAMILL",
        "MAMILLIUS:\n",
        "Polix",
        "Polixen",
        "MOP",
        "MOPS",
        "MOPSA:\n",
        "Paulina",
        "Claudio",
        "ABHOR",
        "ABHORSON:\n",
        "Bion",
        "Bionde",
        "Biondell",
        "Tailor",
        "atswa",
        "people.\n\n",
        "us: ",
        "whol",
        "wholes",
        "particu",
        "barr",
        "neighbour",
        "charit",
        "discontent",
        "senator",
        "complain",
        "cus",
        "'d:\n",
        "find\n",
        "publi",
        "ons, ",
        "stone ",
        "say,\n",
        "sword, ",
        "argu",
        "fought ",
        "make\n",
        "company ",
        "ved, ",
        "already ",
        "honours ",
        "letter ",
        "guard ",
        "wherein ",
        "consider",
        "danger ",
        "Beseech ",
        "both, ",
        "hereaf",
        "Prithee, ",
        "along ",
        "enemy",
        "lend ",
        "Ad",
        "red, ",
        "home,\n",
        "carry ",
        "take\n",
        "drop ",
        "thee; ",
        "charged ",
        "party ",
        "own.\n\n",
        "Rome,\n",
        "es?\n",
        "never\n",
        "es? ",
        "thanks ",
        "short ",
        "dull ",
        "before.\n\n",
        "effec",
        "are, ",
        "refu",
        "gif",
        "sometime ",
        "yea, ",
        "fan",
        "rotten ",
        "occasion ",
        "deal ",
        "doing ",
        "saw",
        "woun",
        "purcha",
        "trumpet",
        "faults ",
        "servant ",
        "their",
        "rich",
        "comple",
        "red\n",
        "devo",
        "fled ",
        "mul",
        "utter",
        "ght\n",
        "perpetu",
        "custom",
        "own, ",
        "dire",
        "dew",
        "You'll ",
        "count",
        "ly; ",
        "seal ",
        "mit ",
        "show'd ",
        "pass'd ",
        "reh",
        "fix",
        "doubt, ",
        "swif",
        "Rea",
        "eless ",
        "punish",
        "len",
        "ce. ",
        "Nothing ",
        "myself\n",
        "AEdi",
        "fie, ",
        "gor",
        "time.\n\n",
        "out,\n",
        "wild ",
        "assa",
        "been\n",
        "thing\n",
        "remed",
        "allow",
        "Hast ",
        "asleep",
        "bend ",
        "mild",
        "Lo, ",
        "else",
        "intell",
        "sme",
        "vell",
        "dist",
        "am, ",
        "Great ",
        "dan",
        "throat",
        "thence ",
        "ent.\n\n",
        "durst ",
        "to-da",
        "miss",
        "safe ",
        "summer ",
        "regi",
        "sits ",
        "ble,\n",
        "private ",
        "burn",
        "Might ",
        "lover",
        "prepare ",
        "moved ",
        "scarce ",
        "flesh",
        "enjo",
        "until ",
        "gru",
        "flowers ",
        "Coun",
        "Pardon ",
        "Hold, ",
        "smoo",
        "treacher",
        "Brother, ",
        "cross",
        "begins ",
        "Hastings ",
        "Warwick's ",
        "Plantagenet",
        "piteous ",
        "eth ",
        "love;\n",
        "her; ",
        "prince,\n",
        "woful ",
        "duked",
        "cheer ",
        "envious ",
        "visit",
        "Fren",
        "eful ",
        "slain",
        "villain, ",
        "Prince ",
        "death;\n",
        "by,\n",
        "dagg",
        "woman, ",
        "tic ",
        "yonder ",
        "good,\n",
        "night.\n",
        "lord: ",
        "brief",
        "sentence ",
        "hands\n",
        "Hold ",
        "suspici",
        "steal ",
        "rude ",
        "fold ",
        "deb",
        "Paris ",
        "vent ",
        "led, ",
        "ARCH",
        "shrew",
        "en;\n",
        "grace\n",
        "May",
        "Mayor:\n",
        "York,\n",
        "possess",
        "o'clo",
        "Richard's ",
        "side,\n",
        "prisoner ",
        "Friar ",
        "proof",
        "sister, ",
        "kindness ",
        "Richmond ",
        "ed: ",
        "hit ",
        "tres",
        "hearted ",
        "assur",
        "proclaim",
        "side",
        "Marsha",
        "coat",
        "sour ",
        "Believe ",
        "joy\n",
        "PERC",
        "PERCY:\n",
        "letter",
        "leave",
        "rest,\n",
        "Romeo's ",
        "Juliet ",
        "BALTH",
        "BALTHAS",
        "BALTHASAR",
        "BALTHASAR:\n",
        "Nap",
        "Sicili",
        "Hortensio, ",
        "Tailor:\n",
        "Is't ",
        "kes, ",
        "tion.\n",
        "here? ",
        "Worthy ",
        "work",
        "country",
        "masters, ",
        "ever\n",
        "knees ",
        "repea",
        "restra",
        "serves ",
        "Still ",
        "mutin",
        "leg",
        "seat ",
        "benefit ",
        "fright",
        "increa",
        "dep",
        "hate,\n",
        "making ",
        "ter'd ",
        "mouth",
        "tribunes ",
        "revol",
        "Tit",
        "know,\n",
        "valour ",
        "shadow",
        "borne ",
        "business",
        "state,\n",
        "pret",
        "was\n",
        "commissi",
        "seeing ",
        "becomes ",
        "us!\n\n",
        "troth, ",
        "go\n",
        "again; ",
        "door",
        "earn",
        "army ",
        "disea",
        "not. ",
        "yours, ",
        "st.\n",
        "tion. ",
        "beyond ",
        "le! ",
        "on;\n",
        "Sol",
        "Soldi",
        "big ",
        "je",
        "thunder",
        "this.\n\n",
        "less\n",
        "market",
        "Three ",
        "som",
        "!--\n",
        "together, ",
        "endure ",
        "Those ",
        "qua",
        "mother,\n",
        "rewar",
        "tent ",
        "proper ",
        "used ",
        "name?\n\n",
        "accor",
        "people, ",
        "perfect ",
        "tion; ",
        "spend ",
        "reverend ",
        "advent",
        "beast",
        "whither ",
        "approach",
        "yed ",
        "action ",
        "received ",
        "Tar",
        "know.\n\n",
        "these\n",
        "welcome, ",
        "men,\n",
        "tion: ",
        "sk ",
        "sport ",
        "ve's ",
        "flatter ",
        "easy ",
        "degre",
        "man: ",
        "scen",
        "Turn ",
        "dying ",
        "rage",
        "'t:\n",
        "called ",
        "wife.\n\n",
        "man.\n",
        ":--",
        "all:\n",
        "t!\n\n",
        "thing, ",
        "dust ",
        "err",
        "er. ",
        "fool ",
        "less, ",
        "amen",
        "charge",
        "mock'd ",
        "no; ",
        "bru",
        "you? ",
        "firm",
        "appreh",
        "voice ",
        "daughter's ",
        "place, ",
        "haz",
        "ants ",
        "outward ",
        "er?\n\n",
        "patient ",
        "curr",
        "none, ",
        "ded, ",
        ",'\n",
        "touch",
        "cares ",
        "double ",
        "despite ",
        "Stay, ",
        "forbid",
        "ls, ",
        "cross ",
        "perish",
        "comb",
        "conce",
        "virg",
        "go:\n",
        "Mil",
        "Sup",
        "Dra",
        "hell ",
        "inju",
        "rious ",
        "fortune's ",
        "thrust ",
        "Dis",
        "hand.\n\n",
        "all.\n",
        "d'",
        "firm ",
        "intellig",
        "joyful ",
        "company.\n\n",
        "Save ",
        "upon\n",
        "ce; ",
        "ine, ",
        "'rt ",
        "le's ",
        "am\n",
        "breast,\n",
        "shame, ",
        "ed; ",
        "braw",
        "buck",
        "fright ",
        "es!\n",
        "bott",
        "ester",
        "ing;\n",
        "gon",
        "ness,\n",
        "vain",
        "glorious ",
        "hand\n",
        "tor ",
        "impossi",
        "Youn",
        "son:\n",
        "'t. ",
        "advise ",
        "spirator",
        "paw",
        "himself, ",
        "stol",
        "lords,\n",
        "court ",
        "majesty\n",
        "kindred ",
        "duke.\n\n",
        "heaven,\n",
        "griev",
        "marr",
        "untimely ",
        "tide ",
        "whiles ",
        "not?\n\n",
        "dam ",
        "creature ",
        "story ",
        "too,\n",
        "Ber",
        "devil ",
        "wife,\n",
        "rebe",
        "loss",
        "Dor",
        "liv",
        "painted ",
        "vain ",
        "taught ",
        "bright ",
        "thee:\n",
        "Buckingham",
        "stir ",
        "Christian ",
        "Lord, ",
        "soul, ",
        "humour",
        "now?\n\n",
        "shing ",
        "end.\n\n",
        "York\n",
        "sper ",
        "commit",
        "Fro",
        "himself,\n",
        "life.\n",
        "hands, ",
        "chide ",
        "lived ",
        "woes ",
        "grace,\n",
        "age, ",
        "York.\n\n",
        "lordship",
        "rise ",
        "real",
        "shri",
        "England ",
        "fairly ",
        "Thanks, ",
        "Ar",
        "ved,\n",
        "bed,\n",
        "watch",
        "Two ",
        "glory ",
        "live,\n",
        "patience ",
        "dal ",
        "dela",
        "disper",
        "Page:\n",
        "stop",
        "daughter,\n",
        "head",
        "her?\n\n",
        "liege,\n",
        "NORF",
        "NORFOL",
        "NORFOLK:\n",
        "civi",
        "greet",
        "furni",
        "art\n",
        "silver ",
        "flower",
        "en.\n\n",
        "ROSS:\n",
        "methinks ",
        "ides ",
        "besee",
        "day\n",
        "gal ",
        "raise ",
        "confess",
        "guest",
        "sense ",
        "man! ",
        "o; ",
        "Luci",
        "Julie",
        "whor",
        "three-",
        "friar ",
        "sta ",
        "Camillo,\n",
        "DORCA",
        "DORCAS:\n",
        "tap",
        "Master, ",
        "Katharina ",
        "Boatswa",
        "away, ",
        "patrician",
        "were\n",
        "vice ",
        "intend ",
        "Stri",
        "edi",
        "body's ",
        "boar",
        "labour ",
        "receive ",
        "bas",
        "rebell",
        "matter, ",
        "rogu",
        "abhor",
        "aw",
        "king?\n\n",
        "fire, ",
        "jec",
        "bled ",
        "aside ",
        "death!\n",
        "matter?\n\n",
        "Volsces ",
        "arms.\n\n",
        "Only ",
        "corn",
        "puts ",
        "al.\n\n",
        "spare ",
        "themselves",
        "more,\n",
        "business, ",
        "ele",
        "ously ",
        "ladies ",
        "afterno",
        "view",
        "mile ",
        "youth",
        "Hark ",
        "us; ",
        "Soldier:\n",
        "doubt",
        "fier",
        "off, ",
        "remain ",
        "m'd ",
        "thither ",
        "encounter",
        "y'",
        "tial ",
        "us?\n\n",
        "threaten",
        "so?\n\n",
        "advan",
        "king: ",
        "tho",
        "ries ",
        "se-",
        "other's ",
        "on:\n",
        "prai",
        "achi",
        "profan",
        "host ",
        "poison",
        "stain ",
        "sanctu",
        "up\n",
        "privile",
        "journe",
        "tells ",
        "patience",
        "blame ",
        "morous ",
        "favour",
        "malice ",
        "follows ",
        "charac",
        "enough.\n\n",
        "subjects ",
        "chea",
        "ded.\n\n",
        "come.\n",
        "on's ",
        "ever, ",
        "buil",
        "tongues ",
        "window",
        "god ",
        "war, ",
        "mb ",
        "blind ",
        "there\n",
        "giving ",
        "blest ",
        "speak.\n",
        "again\n",
        "een ",
        "weeds ",
        "death's ",
        "off,\n",
        "owe ",
        "did, ",
        "Show ",
        "witch",
        "desir",
        "vish ",
        "people's ",
        "touch'd ",
        "judgment ",
        "tions, ",
        "Pre",
        "continu",
        "drawn ",
        "he?\n\n",
        "hold, ",
        "them;\n",
        "yours.\n\n",
        "yo",
        "on. ",
        "honour'd ",
        "absol",
        "reck",
        "power\n",
        "frown ",
        "eag",
        "traitor, ",
        "seize ",
        "AEdile:\n",
        "ing:\n",
        "colour",
        "resi",
        "on't.\n\n",
        "sul",
        "death: ",
        "death?\n",
        "harm ",
        "scan",
        "taste ",
        "leave,\n",
        "undertake ",
        "Death ",
        "worn ",
        "te;\n",
        "words,\n",
        "hand;\n",
        "frame ",
        "ed?\n\n",
        "have.\n\n",
        "ment, ",
        "hin",
        "warlike ",
        "liest",
        "justice, ",
        "peril ",
        "wife's ",
        "buried ",
        "rupt ",
        "vin",
        "laugh ",
        "talk'd ",
        "coo",
        "peace.\n\n",
        "himself\n",
        "fain",
        "favour ",
        "banished",
        "ate, ",
        "acci",
        "merri",
        "supper",
        "advers",
        "um",
        "will,\n",
        "enmit",
        "comest ",
        "'st\n",
        "moon ",
        "face, ",
        "turns ",
        "discour",
        "again.\n",
        "I; ",
        "quiet",
        "About ",
        "better, ",
        "children, ",
        "recor",
        "messeng",
        "sort ",
        "constant ",
        "craf",
        "understand ",
        "acquain",
        "tongue,\n",
        "stuff",
        "back.\n\n",
        "haply ",
        "this? ",
        "lies\n",
        "me? ",
        "sea-",
        "greet ",
        "fif",
        "Hark, ",
        "nex",
        "Conspirator",
        "die,\n",
        "attemp",
        "'n ",
        "ve-",
        "heavi",
        "delight",
        "prot",
        "be;\n",
        "secu",
        "dge ",
        "confer",
        "Bra",
        "seth ",
        "lordship ",
        "zz",
        "king!\n",
        "slaughter'd ",
        "miserable ",
        "gentlemen, ",
        "know'st ",
        "sake",
        "tongue.\n\n",
        "ent.\n",
        "farewell ",
        "fill ",
        "brother\n",
        "kingdom",
        "DORSET:\n",
        "dread ",
        "Wal",
        "hateful ",
        "world's ",
        "subject",
        "tted ",
        "Buckingham, ",
        "her: ",
        "grace.\n\n",
        "mal ",
        "fain ",
        "king; ",
        "No; ",
        "keeps ",
        "room",
        "are.\n\n",
        "blin",
        "repent ",
        "Until ",
        "continue ",
        "spent ",
        "liege",
        "Dear ",
        "ance\n",
        "old.\n\n",
        "Pomfre",
        "innocent ",
        "conquer",
        "land\n",
        "think'st ",
        "Rat",
        "Ratc",
        "Ratclif",
        "GH",
        "head.\n\n",
        "creatu",
        "went ",
        "Came ",
        "sull",
        "play",
        "last",
        "resolve ",
        "st! ",
        "TYRR",
        "TYRREL:\n",
        "Ire",
        "Wilt ",
        "Harry ",
        "oin",
        "safety ",
        "her:\n",
        "highness' ",
        "song",
        "lion ",
        "Thou, ",
        "See",
        "say'st ",
        "speech ",
        "self-",
        "sometimes ",
        "Marshal:\n",
        "summer",
        "hollow ",
        "opp",
        "GREEN",
        "GREEN:\n",
        "haste, ",
        "fury ",
        "Love ",
        "depar",
        "Stay ",
        "Gentlemen, ",
        "drin",
        "posses",
        "special ",
        "kings ",
        "girl",
        "hand:\n",
        "tears, ",
        "tomb",
        "parli",
        "walk ",
        "Montague, ",
        "age.\n\n",
        "Rosa",
        "year ",
        "Juliet, ",
        "concei",
        "her;\n",
        "arra",
        "practise ",
        "Hunt",
        "Hunts",
        "proclaim ",
        "Bohemia ",
        "Camillo ",
        "instruct ",
        "el, ",
        "Claudio ",
        "LUCIO:\n\n",
        "Barnardin",
        "Lucentio ",
        "Baptista ",
        "Bianc",
        "Bianca ",
        "Boatswain:\n",
        "ALON",
        "ALONS",
        "ALONSO:\n",
        "FERD",
        "FERDIN",
        "FERDINAND:\n",
        "und",
        "our\n",
        "dog ",
        "partly ",
        "account ",
        "accusa",
        "Sof",
        "we\n",
        "daily ",
        "wholesome ",
        "poor",
        "sell",
        "c, ",
        "dit ",
        "d'st ",
        "great",
        "else\n",
        "They",
        "discre",
        "dl",
        "granted ",
        "them?\n\n",
        "'t: ",
        "env",
        "Marcius,\n",
        "stant",
        "behind ",
        "greatest ",
        "nature,\n",
        "brook ",
        "aim",
        "sure\n",
        "hear\n",
        "made, ",
        "Aufidius,\n",
        "power, ",
        "discover",
        "Bring ",
        "you!\n\n",
        "express ",
        "rejo",
        "rejoi",
        "absence ",
        "husband's ",
        "hair",
        "shun",
        "tread ",
        "than\n",
        "son: ",
        "catch",
        "child.\n\n",
        "prayer",
        "husband.\n\n",
        "brief ",
        "Fare ",
        "no.\n\n",
        "hence,\n",
        "drum",
        "Rather ",
        "mak",
        "Am",
        "ders, ",
        "hurt ",
        "Fo",
        "ls,\n",
        "alone,\n",
        "dares ",
        "prize ",
        "soul's ",
        "exer",
        "exerci",
        "violent ",
        "not;\n",
        "fare ",
        "well:\n",
        "gentleman,\n",
        "market-",
        "Brea",
        "fou",
        "again. ",
        "heard\n",
        "own,\n",
        "Corioli ",
        "Who's ",
        "lower ",
        "fear\n",
        "ation, ",
        "uten",
        "here.\n",
        "day's ",
        "les,\n",
        "ked, ",
        "more; ",
        "camest ",
        "concea",
        "modest",
        "field ",
        "achie",
        "grows ",
        "incen",
        "world, ",
        "ear\n",
        "success",
        "town ",
        "ments,\n",
        "equal ",
        "spit",
        "tea",
        "hung",
        "angr",
        "nap",
        "magi",
        "sy",
        "contro",
        "perfec",
        "estima",
        "wont ",
        "brings ",
        "land.\n\n",
        "them. ",
        "large ",
        "nine ",
        "noi",
        "renowned ",
        "newly ",
        "laugh",
        "coff",
        "ye",
        "root ",
        "ttle ",
        "right.\n\n",
        "ited ",
        "fanc",
        "way,\n",
        "lets ",
        "kin ",
        "leads ",
        "complex",
        "ately ",
        "Disp",
        "bearing ",
        "displea",
        "himself.\n\n",
        "motion ",
        "pleasing ",
        "scra",
        "limb",
        "it? ",
        "Proce",
        "years,\n",
        "o'er-",
        "pup",
        "stamp",
        "force",
        "'Twere ",
        "cere",
        "ceremon",
        "Mark ",
        "mn ",
        "proceed",
        "place,\n",
        "ourselves ",
        "do; ",
        "truly ",
        "havi",
        "request",
        "'I ",
        "sir. ",
        "ces\n",
        "Four",
        "through",
        "thrice ",
        "ces,\n",
        "ignorant ",
        "dish ",
        "ters ",
        "gn",
        "foe ",
        "said\n",
        "advantage ",
        "denied ",
        "occup",
        "strea",
        "posi",
        "dy, ",
        "what?\n\n",
        "Tri",
        "k-",
        "sleep,\n",
        "mind\n",
        "Some",
        "Cannot ",
        "no\n",
        "traitors ",
        "Lay ",
        "speak:\n",
        "sue ",
        "bred ",
        "bare ",
        "nature",
        "armour ",
        "Ret",
        "compani",
        "both\n",
        "disse",
        "requi",
        "correc",
        "f\n",
        "Commend ",
        "accuse ",
        "envy ",
        ";' ",
        "knave ",
        "plant ",
        "chequ",
        "courage ",
        "name,\n",
        "vex",
        "preser",
        "Hear",
        "Makes ",
        "fear'd ",
        "still, ",
        "years\n",
        "myster",
        "Volsce:\n",
        "again: ",
        "met, ",
        "cause\n",
        "slay ",
        "join ",
        "th-",
        "gentleman, ",
        "not? ",
        "dwell",
        "thou? ",
        "frown",
        "drops ",
        "name; ",
        "ided ",
        "muster ",
        "twelve ",
        "weakn",
        "destroy",
        "looking ",
        "tly, ",
        "both.\n\n",
        "wish'd ",
        "pee",
        "freely ",
        "ses, ",
        "confi",
        "much\n",
        "very\n",
        "willingly ",
        "yet\n",
        "thinks, ",
        "als ",
        "regar",
        "child,\n",
        "distres",
        "trial ",
        "faint",
        "times,\n",
        "fellow, ",
        "old\n",
        "Ano",
        "this?\n",
        "trun",
        "forswor",
        "cries ",
        "ression ",
        "Bet",
        "nought ",
        "myself, ",
        "recon",
        "reconci",
        "haps ",
        "broo",
        "arms,\n",
        "ged, ",
        "repair ",
        "I,\n",
        "raised ",
        "native ",
        "betra",
        "resolution ",
        "piec",
        "loyal ",
        "house\n",
        "monu",
        "changed ",
        "wrink",
        "ping ",
        "shadow ",
        "er.\n",
        "sends ",
        "Shor",
        "jealou",
        "Hasting",
        "melan",
        "evil ",
        "grievous ",
        "weight",
        "shes ",
        "empty ",
        "excuse ",
        "dead; ",
        "shoulder",
        "thither",
        "else, ",
        "chamb",
        "tears,\n",
        "remor",
        "in: ",
        "word,\n",
        "score ",
        "Buckingham ",
        "Der",
        "honesty ",
        "Gloucester, ",
        "gross ",
        "Rutland",
        "proph",
        "lander ",
        "flouri",
        "fall, ",
        "hopes ",
        "thereof ",
        "faithful ",
        "thought, ",
        "write ",
        "in-",
        "meant ",
        "signi",
        "Reme",
        "Gloucester's ",
        "then,\n",
        "side, ",
        "redee",
        "false",
        "vow ",
        "teth ",
        "sed.\n\n",
        "bade ",
        "remembrance ",
        "this:\n",
        "dece",
        "bethink ",
        "gently ",
        "crown'd ",
        "wound ",
        "Wo",
        "counci",
        "mistru",
        "grace, ",
        "mayor ",
        "ARDIN",
        "Caes",
        "fam",
        "pretti",
        "cunning ",
        "effect ",
        "To-morrow ",
        "ck?\n\n",
        "ling, ",
        "dine ",
        "smile ",
        "patient, ",
        "Tur",
        "so.\n",
        "Ga",
        "duke, ",
        ";'\n",
        "substit",
        "dign",
        "accept ",
        "pure ",
        "bed;\n",
        "Tyr",
        "Tyrre",
        "mes ",
        "Exet",
        "thless ",
        "triumph ",
        "away.\n",
        "dow, ",
        "fairer ",
        "right,\n",
        "graced ",
        "ple ",
        "body\n",
        "command, ",
        "crown, ",
        "will?\n\n",
        "mira",
        "Sali",
        "Salisbur",
        "Bri",
        "head;\n",
        "ried\n",
        "Fe",
        "paper ",
        "Ghost ",
        "!--",
        "stance ",
        "civil ",
        "twa",
        "sett",
        "so;\n",
        "Lancaster ",
        "pil",
        "pilgri",
        "lusty ",
        "musician",
        "Gaunt ",
        "money ",
        "dress ",
        "LIS",
        "Norfolk ",
        "regal ",
        "Gentle ",
        "Tro",
        "first, ",
        "father; ",
        "groom ",
        "a's ",
        "prison, ",
        "book",
        "Rosalin",
        "She's ",
        "drunk",
        "much.\n\n",
        "Tybalt's ",
        "luck",
        "Thursday ",
        "vaul",
        "bride ",
        "suffici",
        "Post:\n",
        "brother,\n",
        "vel",
        "'t\n",
        "Flor",
        "o! ",
        "sheep-",
        "Vien",
        "Angelo,\n",
        "Isabel",
        "Angelo, ",
        "Padua ",
        "Bianca, ",
        "Pisa",
        "o.\n",
        "Widow",
        "'t; ",
        "super",
        "aff",
        "ject ",
        "nature, ",
        "barren ",
        "cannot, ",
        "Roman ",
        "App",
        "True, ",
        "in; ",
        "drous ",
        "'d",
        "answer.\n\n",
        "first,\n",
        "vers ",
        "mine\n",
        "Ben",
        "finds ",
        "offence ",
        "deserves ",
        "ends\n",
        "feed ",
        "ume ",
        "ands ",
        "dissol",
        "wisdom",
        "us;\n",
        "Tull",
        "Larti",
        "lean ",
        "business.\n\n",
        "Noble ",
        "dev",
        "!'\n\n",
        "Op",
        "indeed\n",
        "atch ",
        "yes, ",
        "Whether ",
        "when\n",
        "which\n",
        "on; ",
        "hie ",
        "embrace",
        "sell ",
        "not.\n",
        "thus, ",
        "spit ",
        "He'll ",
        "lady",
        "manif",
        "keeper",
        "master.\n\n",
        "mock",
        "sensi",
        "from\n",
        "true; ",
        "iling ",
        "quick ",
        "smo",
        "lesser ",
        "we, ",
        "proof ",
        "us:\n",
        "thoughts,\n",
        "followers ",
        "shut ",
        "lef",
        "terri",
        "enemies ",
        "world\n",
        "Bur",
        "fight.\n\n",
        "praise ",
        "worthi",
        "Ye ",
        "Volsc",
        "whee",
        "gods\n",
        "warri",
        "gentlemen,\n",
        "cease ",
        "aid ",
        "number",
        "inclin",
        "conduct ",
        "serp",
        "doom ",
        "seest ",
        "whip ",
        "more: ",
        "vouch",
        "treasure ",
        "ender ",
        "ments, ",
        "steel ",
        "forth\n",
        "hy",
        "ful\n",
        "fair, ",
        "power.\n\n",
        "request ",
        "should\n",
        "forgo",
        "memor",
        "times, ",
        "subt",
        "valour",
        "ve: ",
        "according ",
        "prayer ",
        "friends.\n\n",
        "neck",
        "croo",
        "ched ",
        "gging ",
        "deserve ",
        "Ha! ",
        "thee. ",
        "third ",
        "Welcome ",
        "offend ",
        "lish",
        "inher",
        "kit",
        "cel",
        "soever ",
        "human ",
        "stand, ",
        "end,\n",
        "tied ",
        "capa",
        "sore ",
        "eas",
        "glo",
        "maids ",
        "knowledge ",
        "lie, ",
        "ent. ",
        "place.\n\n",
        "sun\n",
        "ian ",
        "sea,\n",
        "lur",
        "last,\n",
        "examp",
        "part\n",
        "taken ",
        "monstr",
        "monstrous ",
        "direct ",
        "mel",
        "how\n",
        "service, ",
        "cause, ",
        "most\n",
        "hearti",
        "'t,\n",
        "bear\n",
        "house.\n\n",
        "power,\n",
        "easi",
        "contemp",
        "Get ",
        "ance,\n",
        "hardly ",
        "il.\n\n",
        "Each ",
        "cock",
        "scat",
        "Jove ",
        "war,\n",
        "war\n",
        "divine ",
        "spoken ",
        "thee!\n",
        "Help, ",
        "him! ",
        "rang",
        "Bear ",
        "cause.\n\n",
        "hands.\n\n",
        "holp ",
        "vou",
        "talk",
        "home.\n\n",
        "stretch",
        "yours,\n",
        "polic",
        "fortunes ",
        "business\n",
        "although ",
        "perform ",
        "boy",
        "more. ",
        "hap ",
        "Show",
        "flo",
        "wot ",
        "hoar",
        "heaven\n",
        ":--\n",
        "llest ",
        "face\n",
        "may\n",
        "hast\n",
        "fits ",
        "sple",
        "alter",
        "within, ",
        "table",
        "passage ",
        "street",
        "prevent",
        "iet",
        "soci",
        "rag",
        "work, ",
        "it?\n",
        "even",
        "trembling ",
        "part,\n",
        "embrace ",
        "urge ",
        "eye, ",
        "too:\n",
        "squ",
        "shortly ",
        "nam",
        "eye\n",
        "gaol",
        "name\n",
        "passa",
        "ar, ",
        "deceive",
        "perceive ",
        "quench ",
        "conj",
        "access ",
        "breast",
        "writ ",
        "made",
        "Long ",
        "hangs ",
        "sirra",
        "bodies ",
        "foreign ",
        "Young ",
        "unju",
        "throne ",
        "er; ",
        "arch ",
        "ness.\n\n",
        "Conspirator:\n",
        "knif",
        "served ",
        "women",
        "slain, ",
        "reasons ",
        "parted ",
        "tains ",
        "ge: ",
        "propor",
        "dering ",
        "appoin",
        "Tower.\n\n",
        "se?\n\n",
        "Tower,\n",
        "Mistress ",
        "arch",
        "brother.\n\n",
        "perfor",
        "lord!\n\n",
        "abroad",
        "count ",
        "shrou",
        "key",
        "selfsame ",
        "Vill",
        "Villain",
        "back, ",
        "mortal",
        "view ",
        "govern'd ",
        "butcher",
        "circumstan",
        "Did",
        "Didst ",
        "blemi",
        "revenged ",
        "stabb'd ",
        "heavenly ",
        "Ari",
        "ros",
        "humour ",
        "love.\n",
        "words.\n\n",
        "protector",
        "wrong, ",
        "French ",
        "suspec",
        "ts.\n\n",
        "servant",
        "Rivers, ",
        "sake ",
        "Jes",
        "ped",
        "thereof",
        "bow ",
        "merci",
        "wept ",
        "Northumberland, ",
        "lovely ",
        "wither'd ",
        "breathed ",
        "toa",
        "le!\n",
        "garments ",
        "Lords, ",
        "augh",
        "dismal ",
        "bones ",
        "-in-",
        "Fu",
        "on'd ",
        "dence ",
        "God! ",
        "appea",
        "felt ",
        "fool, ",
        "purse ",
        "repu",
        "depart ",
        "God,\n",
        "tidings ",
        "feeling ",
        "thrive ",
        "heart.\n",
        "day!\n\n",
        "ers.\n\n",
        "purchase ",
        "unless ",
        "sickness ",
        "rest.\n\n",
        "green ",
        "Ne",
        "myself:\n",
        "all;\n",
        ":'\n",
        "slow ",
        "throne",
        "resign ",
        "slu",
        "orator",
        "coron",
        "succe",
        "famous ",
        "grief, ",
        "Uncle, ",
        "Catesb",
        "Willi",
        "tedious ",
        "ence.\n",
        "Many ",
        "ear, ",
        "supposed ",
        "AN:\n",
        "duke's ",
        "Cousin ",
        "'? ",
        "priest ",
        "Margaret, ",
        "down\n",
        "sees ",
        "deputy ",
        "lling ",
        "England, ",
        "forbid ",
        "Plantag",
        "Plantagene",
        "Plantagenet, ",
        "manners ",
        "reign ",
        "see,\n",
        "dead;\n",
        "gold ",
        "sequ",
        "sudden",
        "sea\n",
        "Dar",
        "Hereford ",
        "ried, ",
        "drunk ",
        "womb ",
        "ves.\n",
        "dul",
        "burthen ",
        "art, ",
        "daughter.\n\n",
        "daughter\n",
        "lasting ",
        "nothing; ",
        "knight",
        "worm",
        "good.\n\n",
        "proclama",
        "fruit",
        "don, ",
        "del ",
        "colours ",
        "much,\n",
        "needful ",
        "ed. ",
        "dwell ",
        "sea, ",
        "kinsman ",
        "Through ",
        "his.\n\n",
        "wrong,\n",
        "face.\n\n",
        "anoin",
        "list",
        "Aumerle, ",
        "sepul",
        "sepulch",
        "son's ",
        "Bush",
        "merry, ",
        "WI",
        "WIL",
        "WILLO",
        "WILLOU",
        "WILLOUGH",
        "WILLOUGHBY:\n",
        "tall ",
        "household ",
        "begui",
        "chall",
        "ourselves",
        "earth\n",
        "stain'd ",
        "lord. ",
        "been,\n",
        "ja",
        "garden",
        "liken",
        "dishonour ",
        "pleasant ",
        "ers\n",
        "ther?\n\n",
        "gone,\n",
        "not:\n",
        "say; ",
        "goodness ",
        "now;\n",
        "word:\n",
        "hate'er ",
        "add ",
        "Montague ",
        "maiden",
        "better.\n\n",
        "w, ",
        "Montague,\n",
        "seeming ",
        "sirrah, ",
        "County ",
        "Juliet,\n",
        "nurse ",
        "anger ",
        "maid, ",
        "man. ",
        "quali",
        "hence; ",
        "Laur",
        "gentlewoman",
        "loath",
        "o!\n\n",
        "So",
        "wedding-",
        "sir:\n",
        "ing? ",
        "testi",
        "instruments ",
        "office, ",
        "thecar",
        "shea",
        "concer",
        "'sca",
        "play'd ",
        "shepherd's ",
        "assure ",
        "Huntsman:\n",
        "Min",
        "Camillo, ",
        "CLE",
        "CLEO",
        "CLEOMEN",
        "CLEOMENES:\n",
        "Perdit",
        "contrac",
        "Claudio, ",
        "FRO",
        "FROTH",
        "FROTH:\n",
        "Isabel, ",
        "Marian",
        "Katharina",
        "Petruchio ",
        "Widow:\n",
        "ADR",
        "ADRIAN:\n",
        "resolved ",
        "chief ",
        "away!\n\n",
        "guess ",
        "afflic",
        "services ",
        "did\n",
        "enced ",
        "unknown ",
        "atten",
        "enemies.\n\n",
        "ily, ",
        "wondrous ",
        "accused ",
        "member",
        "appeti",
        "counsell",
        "he,\n",
        "vein",
        "public ",
        "think,\n",
        "no,\n",
        "Hang",
        "who's ",
        "tions\n",
        "nobili",
        "troop",
        "meat ",
        "Titus ",
        "true-",
        "modest ",
        "Better ",
        "fault, ",
        "ddy ",
        "Rome\n",
        "here; ",
        "press'd ",
        "field\n",
        "band",
        "prepared ",
        "Farewell.\n\n",
        "gaze ",
        "k. ",
        "madam; ",
        "dozen ",
        "nobly ",
        "Val",
        "son?\n\n",
        "looked ",
        "Wed",
        "nes",
        "caught ",
        "teeth ",
        "come,\n",
        "excellent ",
        "yet.\n\n",
        "against\n",
        "set\n",
        "true,\n",
        "Vir",
        "swords ",
        "fears ",
        "Hark! ",
        "pound ",
        "shapes ",
        "trench",
        "ers: ",
        "like.\n\n",
        "ess; ",
        "sensel",
        "sword,\n",
        "art,\n",
        "tremb",
        "wore ",
        "pack ",
        "es! ",
        "physi",
        "sacri",
        "sacrifi",
        "ce?\n\n",
        "hour,\n",
        "nup",
        "decre",
        "threatening ",
        "inform ",
        "le? ",
        "Set ",
        "Wa",
        "cent",
        "aid",
        "slave,\n",
        "gg'd ",
        "shamed ",
        "ds: ",
        "ple",
        "Hadst ",
        "done\n",
        "indu",
        "forth,\n",
        "nose ",
        "perceive\n",
        "ours.\n\n",
        "deliver'd ",
        "tion!\n",
        "sanctuar",
        "priest",
        "stom ",
        "in's ",
        "love?\n\n",
        "pping ",
        "boa",
        "sured ",
        "so. ",
        "plaint",
        "hasty ",
        "conver",
        "itious ",
        "another, ",
        "me!\n\n",
        "health",
        "physician",
        "victory ",
        "Coriolanus ",
        "ever.\n\n",
        "on!\n\n",
        "dges ",
        "cheeks ",
        "il\n",
        "burning ",
        "end, ",
        "forget\n",
        "consul, ",
        "put\n",
        "rather\n",
        "ruc",
        "This, ",
        "nobles ",
        "event",
        "ground",
        "ently ",
        "devotion ",
        "injur",
        "main ",
        "pl",
        "enter'd ",
        "terror ",
        "before\n",
        "When, ",
        "spirit\n",
        "en'd ",
        "perpetual ",
        "breast ",
        "devise ",
        "ting, ",
        "tance ",
        "multitu",
        "incl",
        "gown ",
        "behavi",
        "'em.\n\n",
        "alm",
        "country, ",
        "counterfeit ",
        "wep",
        "yourself, ",
        "friendly ",
        "said,\n",
        "endu",
        "elec",
        "enforce ",
        "red,\n",
        "ied ",
        "besi",
        "rought\n",
        "commen",
        "If, ",
        "tis, ",
        "ance.\n\n",
        "rule ",
        "foes ",
        "form'd ",
        "ler ",
        "spirit,\n",
        "will. ",
        "fearing ",
        "wants ",
        "current ",
        "Gree",
        "confu",
        "that.\n\n",
        "recomp",
        "recompen",
        "state\n",
        "pref",
        "becom",
        "ils\n",
        "bury ",
        "gone:\n",
        "sets ",
        "ght.\n\n",
        "rescu",
        "more.\n",
        "ence:\n",
        "belove",
        "this: ",
        "begin",
        "way.\n\n",
        "preci",
        "mother\n",
        "Does ",
        "Fal",
        "mend ",
        "craves ",
        "cely ",
        "do?\n\n",
        "Tush, ",
        "peace\n",
        "speak\n",
        "stake ",
        "sal",
        "knee ",
        "rip",
        "sooth, ",
        "yourself\n",
        "'twill ",
        "single ",
        "possess ",
        "other, ",
        "Away! ",
        "have; ",
        "coll",
        "Keep ",
        "peace,\n",
        "milli",
        "speak,\n",
        "respect ",
        "Making ",
        "extrem",
        "'d. ",
        "you'ld ",
        "'s,\n",
        "exce",
        "course,\n",
        "dearest ",
        "farewell, ",
        "hand: ",
        "faint ",
        "ripe ",
        "adversari",
        "drop",
        "trick ",
        "friends\n",
        "fellows ",
        "harsh ",
        "thine.\n\n",
        "tack",
        "who\n",
        "mere ",
        "wrongs ",
        "follow'd ",
        "Know ",
        "ride ",
        "ouring ",
        "finger ",
        "question ",
        "apo",
        "money",
        "tame ",
        "late.\n\n",
        "commonweal",
        "wife\n",
        "throne,\n",
        "lamentation",
        "slave, ",
        "fellow,\n",
        "forma",
        "slave",
        "thing.\n\n",
        "news? ",
        "join'd ",
        "men; ",
        "hands,\n",
        "him? ",
        "hair ",
        "down,\n",
        "news.\n\n",
        "end;\n",
        "Although ",
        "neck ",
        "takes ",
        "mov",
        "father:\n",
        "urged ",
        "then\n",
        "fast",
        "fied ",
        "chast",
        "conjure ",
        "var",
        "tomor",
        "admit",
        "sour",
        "med, ",
        "spect ",
        "sion, ",
        "Ital",
        "salu",
        "duty, ",
        "yourself.\n\n",
        "unnatura",
        "silent ",
        "all-",
        "reap ",
        "wide ",
        "air,\n",
        "Da",
        "longs ",
        "withal.\n\n",
        "lace ",
        "you!\n",
        "triumphant ",
        "Cry ",
        "charity ",
        "fresh",
        "lord:\n",
        "grieve ",
        "last, ",
        "what\n",
        "rob",
        "pes ",
        "ggar",
        "outra",
        "ill, ",
        "mourn ",
        "mourn",
        "winter ",
        "York;\n",
        "buri",
        "stead ",
        "bark ",
        "spy ",
        "days,\n",
        "w'd ",
        "thoughts, ",
        "queen\n",
        "alone.\n\n",
        "withal\n",
        "emplo",
        "Mean",
        "before, ",
        "youngest ",
        "reach ",
        "fig",
        "happin",
        "there;\n",
        "bold",
        "devil, ",
        "dead,\n",
        "sed;\n",
        "slaughter ",
        "Queen ",
        "brothers ",
        "earth.\n\n",
        "somewhat ",
        "wreck",
        "foul",
        "salt ",
        "sorrows ",
        "pau",
        "on.\n",
        "joys ",
        "Berke",
        "Berkele",
        "sweeter ",
        "dukedom ",
        "mistake ",
        "yon ",
        "ken, ",
        "since, ",
        "plead ",
        "maid\n",
        "look, ",
        "speak; ",
        "Jesu",
        "alle",
        "usurp ",
        "sins ",
        "slander ",
        "did; ",
        "cheth ",
        "sorrow's ",
        "withal ",
        "Vaugh",
        "Vaughan, ",
        "mat",
        "anch",
        "ors, ",
        "pear",
        "hab",
        "woo'd ",
        "floo",
        "tempest ",
        "hide",
        "Prin",
        "wak",
        "Remember ",
        "flies ",
        "restor",
        "live\n",
        "treacherous ",
        "sovereign's ",
        "powerful ",
        "lent ",
        "sava",
        "prince's ",
        "drown ",
        "expect ",
        "hood, ",
        "Buckingham,\n",
        "swell",
        "committed ",
        "colour ",
        "loyal",
        "to-day ",
        "attend",
        "Oxford ",
        "pardon, ",
        "Boy:\n",
        "king.\n",
        "scene ",
        "moan",
        "babe",
        "together,\n",
        "Me ",
        "seldom ",
        "prevent ",
        "so:\n",
        "'A",
        "lei",
        "leisure",
        "ous.\n\n",
        "grew ",
        "can, ",
        "go;\n",
        "none.\n\n",
        "health ",
        "coronation",
        "le?\n\n",
        "man;\n",
        "William ",
        "too; ",
        "boar ",
        "lord;\n",
        "honour's ",
        "stay\n",
        "Ratcliff, ",
        "lord\n",
        "conceit ",
        "sorted ",
        "Off ",
        "ted,\n",
        "both,\n",
        "Gu",
        "lust",
        "bish",
        "France,\n",
        "cot",
        "day:\n",
        "again;\n",
        "Happy ",
        "troo",
        "thence,\n",
        "orna",
        "corrup",
        "swallow",
        "deri",
        "as, ",
        "scope ",
        "number ",
        "round ",
        "wash'd ",
        "lord's ",
        "dle ",
        "hand.\n",
        "Cousin",
        "breath, ",
        "ching ",
        "neighbour ",
        "die:\n",
        "upon,\n",
        "Prove ",
        "ruthless ",
        "mouth ",
        "ah, ",
        "tyrant ",
        "right, ",
        "caiti",
        "strang",
        "brief, ",
        "spirits ",
        "blood.\n\n",
        "comfort, ",
        "Send ",
        "bege",
        "step",
        "beauteous ",
        "Old ",
        "Sti",
        "crown.\n\n",
        "Well",
        "assurance ",
        "sed,\n",
        "op ",
        "der'd ",
        "shire ",
        "ment;\n",
        "ment.\n",
        "sharp ",
        "Sur",
        "Surre",
        "'st,\n",
        "Farewell: ",
        "CLARENCE:\n\n",
        "willing ",
        "share ",
        "shine ",
        "Coura",
        "ing?\n\n",
        "treason ",
        "ant,\n",
        "gli",
        "habit",
        "blood:\n",
        "begun",
        "wel ",
        "Justi",
        "anointed ",
        "Hereford's ",
        "York.\n",
        "vio",
        "feast",
        "dain",
        "perni",
        "pernicious ",
        "solemn ",
        "ish'd ",
        "fanta",
        "parting ",
        "manage ",
        "shame,\n",
        "man? ",
        "sire ",
        "compli",
        "Wil",
        "Wilt",
        "thern ",
        "eves ",
        "Bolingbroke,\n",
        "R ",
        "pom",
        "hrew ",
        "hid ",
        "here?\n",
        "water, ",
        "credit ",
        "palace ",
        "apparel ",
        "sighs ",
        "Fair ",
        "fairest ",
        "down.\n",
        "wrought ",
        "forbear",
        "rapi",
        "t? ",
        "ting.\n\n",
        "nothing.\n\n",
        "happily ",
        "wild",
        "given",
        "'pardon",
        "prison ",
        "breed",
        "eye",
        "voli",
        "forfeit ",
        "nin",
        "term",
        "fellow.\n\n",
        "best.\n\n",
        "where's ",
        "prettiest ",
        "Paris",
        "light, ",
        "courti",
        "Mercutio, ",
        "night's ",
        "He, ",
        "lovest ",
        "ves; ",
        "then; ",
        "Hence",
        "plain, ",
        "Pardon, ",
        "bawd, ",
        "says, ",
        "church ",
        "mightst ",
        "then.\n\n",
        "friend.\n\n",
        "bridegroom ",
        "sin\n",
        "clear ",
        "parlia",
        "MOR",
        "father\n",
        "RUT",
        "RUTLAND:\n",
        "dia",
        "gam",
        "pity, ",
        "shines ",
        "prison.\n\n",
        "dowry ",
        "Somerset, ",
        "life?\n\n",
        "ARCHID",
        "ARCHIDAM",
        "ARCHIDAMUS:\n",
        "Leon",
        "velve",
        "countenance ",
        "her! ",
        "nor\n",
        "curst ",
        "shear",
        "maid,\n",
        "paid ",
        "reason\n",
        "Will't ",
        "wed ",
        "Esca",
        "Angelo.\n\n",
        "tapster",
        "BAR",
        "BARN",
        "BARNARDIN",
        "BARNARDINE:\n",
        "Baptista, ",
        "Katharina, ",
        "Lucentio.\n\n",
        "Grumio, ",
        "Lici",
        "Camb",
        "Cambi",
        "Cali",
        "Speak, ",
        "particular",
        "fort, ",
        "outs ",
        "'e",
        "'em ",
        "yourselves",
        "care\n",
        "Strike ",
        "gods, ",
        "piercing ",
        "utes ",
        "Conf",
        "yourselves ",
        "ure\n",
        "belly ",
        "discontented ",
        "uni",
        "petty ",
        "they",
        "Pati",
        "rash ",
        "friends",
        "shop",
        "brain",
        "asse",
        "appe",
        "Hang ",
        "minute ",
        "places ",
        "They'll ",
        "ry\n",
        "petition ",
        "Five ",
        "vul",
        "not--",
        "ha' ",
        "lately ",
        "Aufidius, ",
        "Att",
        "Shalt ",
        "us' ",
        "face.\n",
        "ant.\n\n",
        "insol",
        "tain'd ",
        "giddy ",
        "dispatch ",
        "Whither ",
        "assist ",
        "comfortable ",
        "where\n",
        "pic",
        "-like ",
        "pleased ",
        "child\n",
        "proved ",
        "son; ",
        "fear,\n",
        "madam.\n\n",
        ",'tis ",
        "Wednes",
        "Wednesday ",
        "ance. ",
        "comes, ",
        "it!\n\n",
        "shall.\n\n",
        "c\n",
        "leave\n",
        "wish\n",
        "work,\n",
        "bring",
        "ho!\n\n",
        "infect ",
        "fires ",
        "fast, ",
        "fierce ",
        "Rome.\n\n",
        "double",
        "him!\n",
        "spirit, ",
        "goddes",
        "tune,\n",
        "Mis",
        "market-place",
        "fought",
        "off\n",
        "Whiles ",
        "citizens ",
        "Abo",
        "Above ",
        "hour, ",
        "thunder ",
        "nuptial ",
        "ors,\n",
        "sied ",
        "olding ",
        "hither.\n\n",
        "purpose.\n\n",
        "present, ",
        "shield ",
        "March ",
        "fly, ",
        "mask",
        "Wer",
        "gladly ",
        "plebe",
        "silence ",
        "praises ",
        "ingra",
        "death. ",
        "Whereof ",
        "beheld ",
        "sau",
        "blush ",
        "Where, ",
        "repose ",
        "late,\n",
        "whel",
        "freed",
        "begg",
        "'d!\n",
        "to: ",
        "condition ",
        "privilege ",
        "custom ",
        "spu",
        "spur ",
        "Nat",
        "hungry ",
        "two\n",
        "Both:\n",
        "others ",
        "discover ",
        "brace ",
        "test",
        "cup ",
        "like\n",
        "but",
        "smen ",
        "drink",
        "ities ",
        "ambitious ",
        "led\n",
        "bench",
        "adventure ",
        "Hon",
        "approba",
        "estate ",
        "seven",
        "off.\n\n",
        "ladies, ",
        "had, ",
        "expedi",
        "advance",
        "soldier, ",
        "?--",
        "thee!\n\n",
        "mal",
        "earnest",
        "popul",
        "better\n",
        "destruc",
        "fire\n",
        "ze\n",
        "Jove's ",
        "plainly ",
        "much, ",
        "rebu",
        "determined ",
        "remember\n",
        "body,\n",
        "people\n",
        "tie ",
        "six",
        "wax",
        "stopp'd ",
        "ease ",
        "man!\n\n",
        "for.\n\n",
        "Coriolanus.\n\n",
        "ces.\n\n",
        "naked ",
        "jot ",
        "have,\n",
        "them: ",
        "intent",
        "wits ",
        "sku",
        "wed",
        "would, ",
        "ward.\n\n",
        "g, ",
        "stands, ",
        "own\n",
        "to't.\n\n",
        "feit",
        "further.\n\n",
        "joy, ",
        "Cu",
        "noti",
        "amongst ",
        "show\n",
        "aged ",
        "putting ",
        "rage,\n",
        "instant",
        "Rep",
        "ages ",
        "curse\n",
        "Yi",
        "pawn ",
        "despi",
        "children's ",
        "Tribun",
        "noblen",
        "ence?\n\n",
        "clouds,\n",
        "quire ",
        "yoke ",
        "Becomes ",
        "sow",
        "words, ",
        "catch ",
        "supre",
        "counsel, ",
        "ruin ",
        "assure",
        "more:\n",
        "other\n",
        "yea",
        "on't, ",
        "inte",
        "integri",
        "Pat",
        "quench",
        "bui",
        "build ",
        "word;\n",
        "--as ",
        "are,\n",
        "forty ",
        "odds ",
        "waters ",
        "world:\n",
        "abe",
        "thrown ",
        "leave, ",
        "Towar",
        "Towards ",
        "unnatural ",
        "Mor",
        "do't ",
        "Pur",
        "Sp",
        "tig",
        "late\n",
        "ence?\n",
        "form,\n",
        "vassa",
        "apt ",
        "Return ",
        "ado",
        "prithee ",
        "net ",
        "stout ",
        "self, ",
        "far\n",
        "free\n",
        "Follow ",
        "must, ",
        "throat ",
        "come?\n\n",
        "chair",
        "temples ",
        "tches ",
        "atel",
        "ce!\n",
        "saying ",
        "presence\n",
        "sses ",
        "corrupt ",
        "ated ",
        "preserve ",
        "calm ",
        "younger ",
        "vit",
        "seen",
        "son.\n",
        "advanta",
        "ground, ",
        "worth",
        "behalf",
        "too: ",
        "sup ",
        "lament ",
        "truly, ",
        "there: ",
        "sion.\n\n",
        "can\n",
        "now. ",
        "oppos",
        "accid",
        "ready, ",
        "bill",
        "heir\n",
        "'fore ",
        "slip",
        "service.\n\n",
        "house: ",
        "feast ",
        "entran",
        "thou'rt ",
        "troubl",
        "func",
        "meddle ",
        "Prep",
        "Prepare ",
        "extreme ",
        "stard ",
        "Thine ",
        "particul",
        "particular ",
        "fool,\n",
        "bowel",
        "hands;\n",
        "taking ",
        "ies,\n",
        "experi",
        "dge",
        "l; ",
        "think.\n\n",
        "ven, ",
        "bottom ",
        "revel ",
        "wipe ",
        "nothing, ",
        "breed ",
        "had,\n",
        "to't ",
        "ier ",
        "ran ",
        "lov",
        "vows ",
        "lik",
        "ker ",
        "whereon ",
        "confin",
        "on-",
        "fear.\n\n",
        "fail ",
        "done.\n",
        "ai",
        "kindness",
        "convey",
        "request,\n",
        "ground,\n",
        "telling ",
        "ar\n",
        "captain ",
        "swo",
        "blown ",
        "Wif",
        "poison, ",
        "stronger ",
        "Another ",
        "beloved ",
        "tomorrow",
        "partn",
        "offer",
        "stand,\n",
        "jealous ",
        "sirrah",
        "before:\n",
        "forsworn ",
        "k;\n",
        "comfort\n",
        "Whereto ",
        "alack, ",
        "vely ",
        "to't, ",
        "ron",
        "out;\n",
        "courtesy,\n",
        "us. ",
        "feder",
        "pierce ",
        "male ",
        "respected ",
        "strew ",
        "vouch ",
        "herself ",
        "n'd\n",
        "knife ",
        "seem'd ",
        "end\n",
        "Tra",
        "cur ",
        "Pe",
        "offences ",
        "weep.\n\n",
        "brows ",
        "hung ",
        "ny",
        "entertain ",
        "drunken ",
        "belike ",
        "disin",
        "disinher",
        "safe, ",
        "liver",
        "charge\n",
        "an't ",
        "ny ",
        "buzz",
        "prey ",
        "abroad ",
        "wench ",
        "obse",
        "obsequi",
        "figure ",
        "cate ",
        "eyes.\n",
        "hopeful ",
        "afra",
        "saint, ",
        "hell,\n",
        "Villain, ",
        "Vouch",
        "Margaret ",
        "provoked ",
        "guilt ",
        "accursed ",
        "beauty's ",
        "sun,\n",
        "shook ",
        "heart;\n",
        "happiness ",
        "solemn",
        "long.\n",
        "mouth, ",
        "looks,\n",
        "months ",
        "prime ",
        "study ",
        "maintain ",
        "sun, ",
        "Richmond, ",
        "believe\n",
        "majesty.\n\n",
        "amend",
        "Gloucester ",
        "fair,\n",
        "lew",
        "suitor ",
        "careful ",
        "ser ",
        "pains ",
        "Hie ",
        "enemies,\n",
        "me!\n",
        "allegi",
        "p'd ",
        "fall'n ",
        "prophes",
        "loss, ",
        "lengthen",
        "grief,\n",
        "Dorset, ",
        "soul!\n",
        "tes",
        "dut",
        "deth ",
        "out-",
        "shining ",
        "darkn",
        "done! ",
        "league ",
        "sleeping ",
        "death:\n",
        "sorrow,\n",
        "thinking ",
        "sion,\n",
        "Catesby, ",
        "come. ",
        "ture,\n",
        "villan",
        "odd ",
        "Tal",
        "Burg",
        "cab",
        "Methought ",
        "stumb",
        "drown",
        "Ten ",
        "wandering ",
        "life;\n",
        "melancho",
        "melancholy ",
        "law, ",
        "?'\n",
        "fleet",
        "perju",
        "frighted ",
        "Sor",
        "commanded ",
        "kind\n",
        "te.\n\n",
        "thing; ",
        "mind, ",
        "se! ",
        "enough, ",
        "kly ",
        "offended ",
        "damna",
        "Alas! ",
        "arm,\n",
        "beggar ",
        "away;\n",
        "redeem ",
        "day.\n",
        "odd",
        "winged ",
        "bore ",
        "thin ",
        "image ",
        "graci",
        "beholding ",
        "hold\n",
        "rash",
        "dead?\n\n",
        "unhappy ",
        "dearly ",
        "torment ",
        "pluck'd ",
        "duce ",
        "worldly ",
        "ent;\n",
        "Much ",
        "grave,\n",
        "them.\n",
        "princes ",
        "heart-",
        "London, ",
        "opinion, ",
        "apparent ",
        "tter:\n",
        "sly ",
        "poli",
        "uncles ",
        "th.\n",
        "boi",
        "storm",
        "'Ay",
        "apa",
        "methinks, ",
        "haste.\n\n",
        "growing ",
        "unfol",
        "ous;\n",
        "mild ",
        "protec",
        "employ",
        "stroke ",
        "north,\n",
        "life; ",
        "month ",
        "iv",
        "omin",
        "ELY:\n",
        "time;\n",
        "part.\n\n",
        ",--for ",
        "garden ",
        "terms ",
        "smooth ",
        "likes ",
        "offen",
        "done:\n",
        "hunt ",
        "sail",
        "distra",
        "w,\n",
        "shel",
        "order,\n",
        "ce?\n",
        "contract ",
        "dy,\n",
        "'God ",
        "knock",
        "dance ",
        "here;\n",
        "troops ",
        "government ",
        "birth, ",
        "emper",
        "own.\n",
        "pover",
        "majesty,\n",
        "pitch ",
        "kind, ",
        "leave.\n\n",
        "farther ",
        "Right ",
        "Full ",
        "avoided ",
        "words\n",
        "bed\n",
        "Adieu",
        "Adieu, ",
        "sullen ",
        "liege.\n\n",
        "consequ",
        "Cousin, ",
        "medi",
        "Know",
        "match ",
        "stops ",
        "arms:\n",
        "Welsh",
        "dire ",
        "France, ",
        "sweet",
        "Bl",
        "grave\n",
        "Harry, ",
        "adul",
        "adulter",
        "pitied ",
        "ch-",
        "now? ",
        "attor",
        "attorne",
        "cop",
        "hell.\n",
        "Virtu",
        "stars ",
        "Canst ",
        "acquainted ",
        "purple ",
        "Men ",
        "youth,\n",
        "il,\n",
        "trans",
        "iring ",
        "chasti",
        "dishonour",
        "sh\n",
        "Im",
        "k:\n",
        "straight\n",
        "None ",
        "chair ",
        "rebels ",
        "Exeter, ",
        "set,\n",
        "taken",
        "George",
        "Blun",
        "turn'd ",
        "usurping ",
        "ge. ",
        "ha! ",
        "ment:\n",
        "trusty ",
        "Northumberland",
        "wings ",
        "lights ",
        "re;\n",
        "face;\n",
        "horse! ",
        "enjoy ",
        "birth",
        "rose ",
        "mad, ",
        "re:\n",
        "come;\n",
        "traitor's ",
        "swear\n",
        "Mowbray's ",
        "treasons ",
        "when",
        "ear,\n",
        "jewel ",
        "Covent",
        "dried ",
        "farewell; ",
        "lodg",
        "hither,\n",
        "pilgrima",
        "p,\n",
        "boots ",
        "Things ",
        "father.\n",
        "sought ",
        "rather, ",
        "fantasti",
        "Bushy, ",
        "tribu",
        "supply ",
        "presently.\n",
        "deck ",
        "kings, ",
        "waste ",
        "true: ",
        "marriage, ",
        "thus: ",
        "droop",
        "Raven",
        "Ravenspur",
        "grief;\n",
        "faction ",
        "servants ",
        "Bolingbroke.\n\n",
        "woe,\n",
        "Comes ",
        "BAG",
        "BAGO",
        "BAGOT:\n",
        "once, ",
        "thanks, ",
        "absent ",
        "Grace ",
        "?' ",
        "thrif",
        "challen",
        "challenge ",
        "divor",
        "possession ",
        "raven",
        "CAR",
        "CARLIS",
        "CARLISLE:\n",
        "yields ",
        "thief",
        "SI",
        "SIR ",
        "STE",
        "STEP",
        "STEPHEN",
        "STEPHEN ",
        "SC",
        "SCRO",
        "SCROOP",
        "SCROOP:\n",
        "lim",
        "gentlemen ",
        "besides ",
        "crown.\n",
        "ering ",
        "Northumberland,\n",
        "shrie",
        "legs ",
        "either, ",
        "Gar",
        "Garden",
        "profit ",
        "be: ",
        "up.\n\n",
        "FIT",
        "FITZ",
        "FITZW",
        "FITZWAT",
        "FITZWATER:\n",
        "Veni",
        "breath,\n",
        "one: ",
        "rit",
        "born.\n",
        "lamentable ",
        "passion ",
        "woman.\n\n",
        "none;\n",
        "pray,\n",
        "EXTON",
        "EXTON:\n",
        "silly ",
        "time: ",
        "'s.\n\n",
        "No.\n\n",
        "Benvoli",
        "night:\n",
        "sion.\n",
        "she'll ",
        "ege ",
        "liberty ",
        "beauti",
        "names ",
        "ts; ",
        "Mantua",
        "estee",
        "consta",
        "closed ",
        "er!\n\n",
        "Anton",
        "thirty ",
        "forswear ",
        "Romeo.\n\n",
        "sake.\n\n",
        "Romeo! ",
        "mistress' ",
        "smell ",
        "ning, ",
        "exchange ",
        "such\n",
        "Hence ",
        "ghostly ",
        "homely ",
        "Wom",
        "aboar",
        "sorry ",
        "lled ",
        "stain",
        "hence.\n\n",
        "o;\n",
        "there? ",
        "day! ",
        "'banished",
        "Father, ",
        "phi",
        "philo",
        "philoso",
        "philosoph",
        "sings ",
        "fie! ",
        "breathe",
        "chat ",
        "lord! ",
        "ey, ",
        "sav",
        "whom, ",
        "tutor",
        "marriage\n",
        "escap",
        "WEST",
        "WESTMOR",
        "WESTMOREL",
        "WESTMORELAND:\n",
        "duke,\n",
        "abide ",
        "Warwick! ",
        "ess:\n",
        "GE",
        "GEOR",
        "GEORG",
        "GEORGE:\n",
        "Bona ",
        "satisfy ",
        "eldest ",
        "words:\n",
        "usu",
        "slept ",
        "arrived ",
        "devil's ",
        "foot",
        "lig",
        "shrew ",
        "you're ",
        "Gaol",
        "Gaoler:\n",
        "Antigon",
        "testimon",
        "Apollo ",
        "first.\n\n",
        "What\n",
        "brother; ",
        "profes",
        "rascal ",
        "None, ",
        "Paulina,\n",
        "Vienna",
        "wife?\n\n",
        "Pompey, ",
        "provost, ",
        "Biondello, ",
        "frowar",
        "Gremio, ",
        "Baptista's ",
        "Tranio ",
        "Padua",
        "Minola",
        "Sun",
        "Hic ",
        "CALI",
        "CALIB",
        "CALIBAN:\n",
        "proceed ",
        "fami",
        "corn ",
        "done: ",
        "authority ",
        "object ",
        "abund",
        "ance; ",
        "Marcius?\n\n",
        "first: ",
        "Consi",
        "undone ",
        "already.\n\n",
        "lift ",
        "cracking ",
        "Appear ",
        "ment. ",
        "arms, ",
        "cala",
        "ses\n",
        "rich, ",
        "tale: ",
        "purpose, ",
        "ments\n",
        "affection ",
        "gs, ",
        "mutinous ",
        "senators ",
        "'F",
        "restrain",
        "rue ",
        "food ",
        "erves ",
        "once,\n",
        "run,\n",
        "Hail, ",
        "subdu",
        "favours ",
        "Trust ",
        "mind,\n",
        "Him ",
        "declin",
        "Bel",
        "grain ",
        "ded;\n",
        "ved: ",
        "dogs ",
        "ly: ",
        "moon,\n",
        "vulgar",
        "city,\n",
        "elder",
        "Cominius ",
        "is;\n",
        "t'",
        "other,\n",
        "gna",
        "chos",
        "lip ",
        "succ",
        "Cominius.\n\n",
        "below ",
        "utmost ",
        "rob ",
        "singul",
        "bodi",
        "known\n",
        "east ",
        "enemy,\n",
        "hated ",
        "ation\n",
        "likely ",
        "army",
        "towns ",
        "alone ",
        "that;\n",
        "free",
        "lier ",
        "rejoice ",
        "ned, ",
        "sons, ",
        "eleven ",
        "bear, ",
        "task",
        "Jup",
        "Jupit",
        "cian ",
        "welcome.\n\n",
        "Heaven",
        "school-",
        "O' ",
        "butter",
        "thither.\n\n",
        "sensible ",
        "obey ",
        "hereafter",
        "walls,\n",
        "up: ",
        "shu",
        "plagu",
        "secon",
        "senseless ",
        "wish, ",
        "'t! ",
        "hate, ",
        "veni",
        "numb",
        "fron",
        "speak'st ",
        "report.\n\n",
        "shepherd ",
        "meaner ",
        "mant",
        "Condem",
        "ying, ",
        "grey",
        "slip ",
        "alone;\n",
        "side\n",
        "bands ",
        "hope.\n\n",
        "battles ",
        "hour.\n\n",
        "conduc",
        "choice ",
        "those\n",
        "dearer ",
        "ward, ",
        "rest\n",
        "fight,\n",
        "field,\n",
        "Lie",
        "Lieuten",
        "Lieutenant:\n",
        "care, ",
        "'s.\n",
        "fame ",
        "Wert ",
        "condemned ",
        "shru",
        "plebeian",
        "held",
        "grieves ",
        "been",
        "spire ",
        "top ",
        "done",
        "hors",
        "doing.\n\n",
        "trumpets ",
        "safely ",
        "war's ",
        "belong",
        "ly:\n",
        "butcher ",
        "in't ",
        "naked, ",
        "attended ",
        "to-night.\n\n",
        "Nature ",
        "wolf ",
        "lamb ",
        "pride ",
        "thief ",
        "actions ",
        "proud, ",
        "magistra",
        "complaint",
        "--I ",
        "ships ",
        "ass ",
        "too?\n\n",
        "caps ",
        "roaring ",
        "bleeding ",
        "ds; ",
        "stuff ",
        "cushi",
        "God-",
        "preserv",
        "wounde",
        "pock",
        "home\n",
        "ly?\n\n",
        "that:\n",
        "carries ",
        "tears:\n",
        "Death, ",
        "this; ",
        "heart:\n",
        "petition",
        "?--\n",
        "home:\n",
        "crab",
        "trees ",
        "fools ",
        "specta",
        "ree",
        "bul",
        "smother",
        "agree",
        "slily ",
        "crep",
        "consul.\n\n",
        "sleep.\n\n",
        "humili",
        "thought\n",
        "commons ",
        "here. ",
        "stand\n",
        "nei",
        "seeks ",
        "coming.\n\n",
        "therefor",
        "Coriolanus, ",
        "requit",
        "al\n",
        "ears, ",
        "hearts\n",
        "ly;\n",
        "venture ",
        "Coriolanus\n",
        "held\n",
        "chiefest ",
        "sixteen ",
        "at, ",
        "age\n",
        "sail, ",
        "k; ",
        "foot\n",
        "destin",
        "ours, ",
        "misery ",
        "still\n",
        "honour!\n\n",
        "inten",
        "voices, ",
        "judge ",
        "mar ",
        "clean",
        "air, ",
        "price ",
        "Fourth ",
        "insin",
        "insinu",
        "give\n",
        "do.\n",
        "of; ",
        "things, ",
        "Six",
        "Amen, ",
        "marks ",
        "knowing ",
        "man?\n\n",
        "unworthy ",
        "scorn",
        "les",
        "enemy, ",
        "might\n",
        "curses ",
        "easily ",
        "sound.\n\n",
        "apprehen",
        "began ",
        "of,\n",
        "Twi",
        "Twice ",
        "ancest",
        "or.\n\n",
        "rage\n",
        "fortunes\n",
        "hatred ",
        "rank ",
        "incensed ",
        "suppli",
        "pass\n",
        "dishonour'd ",
        "speech, ",
        "nouri",
        "deca",
        "ton ",
        "absolute ",
        "'?\n\n",
        "senators, ",
        "tast",
        "Sometime ",
        "diso",
        "disobe",
        "expres",
        "Break ",
        "locks ",
        "cessi",
        "purpose. ",
        "depend",
        "Down ",
        "Patrician",
        "be? ",
        "speak. ",
        "stinc",
        "Tarpe",
        "withdraw ",
        "Help ",
        "manhood ",
        "Nep",
        "ce!\n\n",
        "lost",
        "heel",
        "together\n",
        "way: ",
        "lls ",
        "war.\n",
        "worse,\n",
        "tongue, ",
        "fawn ",
        "guard\n",
        "confess,\n",
        "yours;\n",
        "harlo",
        "Sma",
        "lips, ",
        "arm'd ",
        "'dst ",
        "thyself.\n\n",
        "ted.\n",
        "either\n",
        "gati",
        "looks\n",
        "comes.\n\n",
        "rong ",
        "Draw ",
        "near, ",
        "determine ",
        "matter\n",
        "hour\n",
        "again?\n\n",
        "Answ",
        "lying ",
        "posing ",
        "capit",
        "ther:\n",
        "bond ",
        "means\n",
        "last\n",
        "away:\n",
        "banish'd, ",
        "drif",
        "farewell: ",
        "butt",
        "courage",
        "ts;\n",
        "heavens! ",
        "pesti",
        "lack",
        "venom",
        "women\n",
        "post",
        "O'er ",
        "weeping, ",
        "ship\n",
        "knit ",
        "ses! ",
        "approved ",
        "Volsci",
        "Volscian ",
        "fallen ",
        "tending ",
        "one; ",
        "readin",
        "heartily ",
        "wives ",
        "separ",
        "here! ",
        "us? ",
        "avoi",
        "marvell",
        "marvellous ",
        "canop",
        "distur",
        "Volscian",
        "ears,\n",
        "vessel",
        "rest;\n",
        "extremit",
        "th; ",
        "Mistake ",
        "revengeful ",
        "prove\n",
        "Thou'rt ",
        "present\n",
        "ine\n",
        "saw\n",
        "purpose\n",
        "helm",
        "bowels ",
        "parts ",
        "term ",
        "soldier ",
        "eaten ",
        "middle ",
        "yester",
        "imagin",
        "executed ",
        "Peace ",
        "bastard ",
        "ris",
        "Blu",
        "by",
        "behold\n",
        "tious ",
        "time.\n",
        "nothing: ",
        "den, ",
        "did.\n\n",
        "O'",
        "sole ",
        "Dest",
        "banishment,\n",
        "whipp",
        "can,\n",
        "fearful",
        "likel",
        "franchi",
        "coal",
        "using ",
        "means, ",
        "il;\n",
        "ghts ",
        "fail",
        "all; ",
        "go: ",
        "that? ",
        "minded ",
        "expec",
        "ted: ",
        "two, ",
        "burnt ",
        "patient",
        "help, ",
        "souls\n",
        "gold, ",
        "Bound ",
        "read\n",
        "behalf ",
        "revenges ",
        "eve ",
        "go; ",
        "ell",
        "son!\n",
        "varle",
        "Wife, ",
        "proper",
        "famili",
        "gone.\n",
        "yielded ",
        "ring",
        "vow\n",
        "moul",
        "trunk ",
        "blood. ",
        "carried ",
        "flin",
        "ween ",
        "bles ",
        "ic",
        "request, ",
        "bound",
        "had\n",
        "recre",
        "wait ",
        "womb,\n",
        "long.\n\n",
        "thereby ",
        "reconcile ",
        "know'st, ",
        "Think",
        "Perhaps ",
        "mother; ",
        "stock",
        "fire,\n",
        "make, ",
        "confeder",
        "possible ",
        "moves ",
        "shr",
        "house:\n",
        "Ne'er ",
        "thanks.\n\n",
        "them:\n",
        "here:\n",
        "place; ",
        "purge ",
        "'Twixt ",
        "Pres",
        "joint",
        "vell'd ",
        "rhe",
        "along,\n",
        "Lords:\n",
        "heed ",
        "written ",
        "levi",
        "Sub",
        "scri",
        "Read ",
        "Mea",
        "up.\n",
        "stern ",
        "visa",
        "king-",
        "breathing ",
        "ity:\n",
        "dreams,\n",
        "prophec",
        "'G",
        "be.\n",
        "comes.\n",
        "waits ",
        "ruled ",
        "night-",
        "Hu",
        "gossi",
        "foot,\n",
        "patience.\n\n",
        "path ",
        "patience, ",
        "too;\n",
        "his,\n",
        "liberty.\n\n",
        "abroad?\n\n",
        "migh",
        "mighti",
        "live:\n",
        "stle ",
        "daughter.\n",
        "diest ",
        "awhile ",
        "vocate ",
        "windows ",
        "balm ",
        "hence!\n",
        "betide ",
        "toad",
        "happiness",
        "conju",
        "vance ",
        "minister ",
        "hein",
        "deeds,\n",
        "tern ",
        "gea",
        "ity;\n",
        "l.\n",
        "swallow ",
        "beast ",
        "infection ",
        "devilish ",
        "point.\n\n",
        "slanderous ",
        "guiltless ",
        "gentle, ",
        "chamber ",
        "Edward,\n",
        "thyself, ",
        "eft ",
        "dead!\n\n",
        "Rutland ",
        "manly ",
        "er: ",
        "figu",
        "ve;\n",
        "te-",
        "Tew",
        "Tewk",
        "Tewksbur",
        "lity ",
        "moiet",
        "shapen ",
        "grave;\n",
        "cover ",
        "accustom",
        "accustom'd ",
        "Oh, ",
        "Gloucester,\n",
        "likeli",
        "not?\n",
        "thee? ",
        "lewd ",
        "belike, ",
        "itself\n",
        "remove ",
        "gentleman\n",
        "so?\n",
        "worser ",
        "king?\n",
        "Alban",
        "Alban's ",
        "art.\n\n",
        "Warwick;\n",
        ",--which ",
        "crown;\n",
        "busy ",
        "pedlar",
        "deed.\n\n",
        "peevish ",
        "torment",
        "loathed ",
        "spider",
        "back'd ",
        "frantic ",
        "you! ",
        "luna",
        "dash ",
        "alas!\n",
        "cloudy ",
        "compass ",
        "awake ",
        "venom ",
        "tooth ",
        "spli",
        "sed.\n",
        "abroa",
        "stolen ",
        "rate, ",
        "perhap",
        "valu",
        "skull",
        "habit, ",
        "stranger ",
        "alou",
        "false, ",
        "inward ",
        "resign",
        "wake ",
        "'Z",
        "'Zound",
        "strike",
        "judge",
        "rede",
        "redemp",
        "Christ",
        "command.\n\n",
        "Er",
        "sacra",
        "I.\n",
        "late, ",
        "coward ",
        "hence;\n",
        "dden ",
        "prosper ",
        "heart!\n\n",
        "viola",
        "love!\n",
        "swelling ",
        "desert ",
        "infant ",
        "tardy ",
        "some, ",
        "lap ",
        "proudest ",
        "boy.\n\n",
        "wring ",
        "alive",
        "loath ",
        "dead.\n",
        "arm, ",
        "kindly ",
        "drew ",
        "fortune, ",
        "obedient ",
        "aunt, ",
        "likewise ",
        "watery ",
        "hild",
        "stays ",
        "weep, ",
        "nurse,\n",
        "Comfort, ",
        "opposite ",
        "sures ",
        "Woe ",
        "Gloucester",
        "cloa",
        "storms ",
        "Truly, ",
        "minds ",
        "boister",
        "ARCHBISHOP ",
        "brother: ",
        "boy: ",
        "sulting ",
        "tyranny ",
        "tainted ",
        "ingu",
        "sin.\n\n",
        "igh ",
        "gross",
        "place.\n",
        "Caesar ",
        "conquest ",
        "brother?\n\n",
        "little, ",
        "boy;\n",
        "forward, ",
        "way;\n",
        "duke\n",
        "soundly.\n\n",
        "movea",
        "grace's ",
        "ttering ",
        "crown?\n\n",
        "aim ",
        "now:\n",
        "fellow: ",
        "peer",
        "sons,\n",
        "ate.\n\n",
        "duke?\n\n",
        "mind.\n\n",
        "slee",
        "hope,\n",
        "consent\n",
        "Withdraw ",
        "up:\n",
        "this.\n",
        "Stanley ",
        "house.\n",
        "mom",
        "ignoble ",
        "avoid ",
        "Guil",
        "fer ",
        "linea",
        "lives.\n\n",
        "fathers ",
        "cy,\n",
        "resem",
        "mind;\n",
        "Scot",
        "medit",
        "ha, ",
        "reli",
        "zea",
        "cler",
        "gy",
        "Lend ",
        "friends.\n",
        "leaving ",
        "Else ",
        "mildness ",
        "substitu",
        "lowly ",
        "bitterly ",
        "ambi",
        "fondly ",
        "away,\n",
        "thoughts\n",
        "Do, ",
        "kin,\n",
        "scandal ",
        "'d?\n\n",
        "princes",
        "West",
        "when, ",
        "takest ",
        "well!\n",
        "stones ",
        "king? ",
        "pleasure.\n\n",
        "die?\n\n",
        "ughty ",
        "Ann",
        "Tyrrel, ",
        "sovereign.\n\n",
        "demand ",
        "process ",
        "ham",
        "bosom,\n",
        "liz",
        "field.\n\n",
        "fix'd ",
        "mm'd ",
        "mine:\n",
        "souls,\n",
        "just, ",
        "factor",
        "saints ",
        "flattering ",
        "bending ",
        "caitiff ",
        "about,\n",
        "burthen",
        "mischan",
        "France.\n\n",
        "woes,\n",
        "stay'd ",
        "success ",
        "victory.\n",
        "level ",
        "Throw ",
        "tion:\n",
        "eyes;\n",
        "rock",
        "cover'd ",
        "Up ",
        "step ",
        "riches ",
        "ar.\n\n",
        "subject, ",
        "tale.\n\n",
        "grave.\n\n",
        "Swear ",
        "metal",
        "ve:\n",
        "Wri",
        "short",
        "changing ",
        "coa",
        "puis",
        "puiss",
        "doubtful ",
        "-hearted ",
        "alive ",
        "adverti",
        "Bish",
        "advised ",
        "bank",
        "Britt",
        "Pem",
        "justice,\n",
        "All-",
        "fellows, ",
        "fall\n",
        "feign",
        "feigned ",
        "gh\n",
        "Lies ",
        "strength,\n",
        "Gives ",
        "sign",
        "lark ",
        "arms\n",
        "troubled ",
        "Richard; ",
        "Find ",
        "dream'd ",
        "shadows ",
        "substance ",
        "slep",
        "sweetest ",
        "sleep, ",
        "depart",
        "rear",
        "fat ",
        "Sound ",
        "boldly ",
        "sadly ",
        "horse.\n",
        "again:\n",
        "more",
        "chery ",
        "highness, ",
        "immortal ",
        "Mowbray, ",
        "eager ",
        "rate ",
        "defy ",
        "frozen ",
        "thood ",
        "Mowbray ",
        "prove,\n",
        "thest ",
        "Fet",
        "Fetch ",
        "Bolingbroke, ",
        "trespass ",
        "make",
        "Obe",
        "'d-",
        "settled ",
        "marsha",
        "whereof ",
        "branch ",
        "champ",
        "care",
        "val ",
        "Lam",
        "earthly ",
        "youthful ",
        "point,\n",
        "danc",
        "cele",
        "Virtue ",
        "Stands ",
        "signal ",
        "list ",
        "iron ",
        "kindre",
        "banishment.\n\n",
        "harmon",
        "meet\n",
        "realm",
        "about\n",
        "inch ",
        "minut",
        "strict ",
        "absent",
        "ination ",
        "summer's ",
        "farewell",
        "affairs ",
        "strive ",
        "ear.\n\n",
        "mps ",
        "reputation ",
        "shore ",
        "beats ",
        "bree",
        "wounded ",
        "land.\n",
        "runs ",
        "roun",
        "already, ",
        "'m",
        "woe.\n\n",
        "lands.\n\n",
        "self,\n",
        "queen: ",
        "part;\n",
        "northern ",
        "horse, ",
        "eyed ",
        "have: ",
        "staff",
        "ite, ",
        "do: ",
        "men:\n",
        "oath\n",
        "kinsman, ",
        "I'",
        "enemy\n",
        "company,\n",
        "boy?\n\n",
        "elder ",
        "mes",
        "youth\n",
        "rebellion ",
        "rouse ",
        "cousin's ",
        "are:\n",
        "redress ",
        "shoo",
        "bread ",
        "execution ",
        "spite ",
        "neglec",
        "myself; ",
        "damn'd ",
        "warm",
        "crown\n",
        "complexion ",
        "crim",
        "pet ",
        "meeting ",
        "joints ",
        "flower ",
        "spring ",
        "scept",
        "sceptre ",
        "tears;\n",
        "unru",
        "lord,--\n\n",
        "Gardener:\n",
        "are; ",
        "forth, ",
        "stars,\n",
        "best\n",
        "falsehood ",
        "darest.\n\n",
        "else? ",
        "cros",
        "surely ",
        "beseeming ",
        "captain",
        "clima",
        "oath,\n",
        "thine, ",
        "myself.\n",
        "substan",
        "great, ",
        "shape ",
        "winter's ",
        "Wee",
        "wedding ",
        "owl ",
        "ledge ",
        "into\n",
        "son! ",
        "villain! ",
        "alone.\n",
        "d-hearted ",
        "'pardon' ",
        "foe.\n\n",
        "compar",
        "love; ",
        "room:\n",
        "travell",
        "rail ",
        "to?\n\n",
        "room ",
        "light.\n",
        "and,\n",
        "masters ",
        "comes\n",
        "ABR",
        "ABRA",
        "ABRAHAM:\n",
        "Capulet",
        "ture, ",
        "aside",
        "Goo",
        "love! ",
        "lovers' ",
        "Cup",
        "Paris, ",
        "Verona",
        "merr",
        "wood ",
        "face?\n",
        "warrant, ",
        "el's ",
        "lady! ",
        "straight.\n\n",
        "county ",
        "withou",
        "will;\n",
        "burden ",
        "vis",
        "cand",
        "constable",
        "fil",
        "dreams ",
        "veth ",
        "horses ",
        "carri",
        "too. ",
        "whisper",
        "much:\n",
        "cheek ",
        "storm ",
        "Verona ",
        "contrary ",
        "take",
        "away; ",
        "charm ",
        "Romeo!\n\n",
        "on! ",
        "likeness ",
        "found",
        "pilo",
        "Romeo,\n",
        "afear",
        "getting ",
        "medic",
        "bed:\n",
        "confes",
        "Women ",
        "rests ",
        "Cle",
        "witch ",
        "longer.\n\n",
        "Peter, ",
        "Romeo?\n\n",
        "merch",
        "ye, ",
        "Laurence",
        "Laurence' ",
        "gallant ",
        "mistress.\n\n",
        "loathsome ",
        "hot, ",
        "gaz",
        "love:\n",
        "Mercutio's ",
        "unluck",
        "exile ",
        "steeds,\n",
        "ts. ",
        "mis-",
        "friar,\n",
        "revi",
        "disgui",
        "quaint ",
        "to-morrow.\n\n",
        "nighting",
        "morning",
        "madam,\n",
        "bag",
        "ack",
        "acknow",
        "bridal ",
        "henceforth ",
        "father?\n\n",
        "pack",
        "cock ",
        "whores",
        "forgive ",
        "ho, ",
        "dagger ",
        "tarry ",
        "ply ",
        "statue ",
        "Char",
        "k: ",
        "down:\n",
        "sex",
        "ready; ",
        "concerns ",
        "se!\n",
        "impu",
        "'scape",
        "k.\n",
        "feather ",
        "ron ",
        "Warwick,\n",
        "delicat",
        "anon ",
        "widow, ",
        "Sit ",
        "aside,\n",
        "surpri",
        "usual ",
        "iz",
        "inclined ",
        "island ",
        "constan",
        "Bohemia",
        "question",
        "adventure\n",
        "wag",
        ";--",
        "boldness ",
        "wasp",
        "condemn'd ",
        "nothing\n",
        "this. ",
        "credit",
        "push ",
        "erran",
        "princess ",
        "You're ",
        "ther. ",
        "o\n",
        "Hermione ",
        "fifteen ",
        "tir",
        "AUTOLYCUS:\n\n",
        "sheep-shear",
        "sa ",
        "ballad ",
        "mistress, ",
        "tempor",
        "lus,\n",
        "Well; ",
        "trade",
        "Isabell",
        "Elbow",
        "Pompey; ",
        "instruction ",
        "brown ",
        "hanged ",
        "Barnardine ",
        "VINCENTIO:\n\n",
        "Pis",
        "Pisa ",
        "o: ",
        "Carth",
        "Tranio.\n\n",
        "Antoni",
        "Gremio ",
        "Kate; ",
        "Sunday ",
        "'Hic ",
        "ami",
        "Mistress, ",
        "Hortensio ",
        "Sy",
        "Sycor",
        "Caliban",
        "Tun",
        "Resol",
        "ved. ",
        "ved.\n\n",
        "talking ",
        "patricians ",
        "superf",
        "superflu",
        "ome, ",
        "Consider ",
        "pays ",
        "faults, ",
        "tire ",
        "city\n",
        "prating ",
        "Soft! ",
        "deed",
        "suitors ",
        "undo ",
        "charitable ",
        "suffering ",
        "impedi",
        "transpor",
        "calamit",
        "esta",
        "provide ",
        "statutes ",
        "will; ",
        "Confess ",
        "stale ",
        "disgrace ",
        "gul",
        "remain\n",
        "body, ",
        "mutu",
        "taunt",
        "ingly ",
        "parts\n",
        "lant ",
        "then?\n",
        "Patience ",
        "awhile, ",
        "ate,\n",
        "rivers ",
        "court, ",
        "ranks ",
        "inferi",
        "inferior ",
        "enc",
        "'--",
        "cannot\n",
        "to't",
        "Touch",
        "Touching ",
        "rebelli",
        "Marcius!\n\n",
        "entious ",
        "hail",
        "affections ",
        "desires ",
        "increase ",
        "ws ",
        "rush",
        "garland",
        "senate, ",
        "whereof, ",
        "presume ",
        "nobility ",
        "thousands ",
        "orn ",
        "rab",
        "prevail'd ",
        "tion's ",
        "musty ",
        "Tullus ",
        "'t.\n",
        "together.\n\n",
        "Attend ",
        "where, ",
        "ers. ",
        "follow.\n\n",
        "chosen ",
        "Mark'd ",
        "miscar",
        "Come",
        "merit ",
        "along.\n\n",
        "is.\n",
        "west",
        "ous; ",
        "rumour",
        "Cominius, ",
        "ences ",
        "Rome. ",
        "afoo",
        "parce",
        "ture",
        "wall, ",
        "stir, ",
        "surfeit ",
        "ckle ",
        "Hec",
        "Hector",
        "knee\n",
        "wing ",
        "together: ",
        "play\n",
        "thres",
        "abl",
        "speedy ",
        "pe: ",
        "finger, ",
        "madam?\n\n",
        "it's ",
        "forth; ",
        "power: ",
        "doubt\n",
        "alone, ",
        "then.\n",
        "wager ",
        "um, ",
        "gates,\n",
        "Amongst ",
        "shiel",
        "hearts, ",
        "fight\n",
        "sweat ",
        "th. ",
        "another\n",
        "Plu",
        "flight ",
        "Foo",
        "l-",
        "city.\n\n",
        "re, ",
        "jewel",
        "strok",
        "grim ",
        "fever",
        "rain ",
        "silver",
        "crack'd ",
        "leaden ",
        "thus\n",
        "Fall ",
        "charm",
        "Prosper",
        "page",
        "trumpet ",
        "friends: ",
        "cowardly ",
        "charges ",
        "Lead ",
        "thankful ",
        "couldst ",
        "Volsces\n",
        "miles ",
        "thus.\n\n",
        "greyh",
        "sh,\n",
        "truth: ",
        "guess, ",
        "Antiat",
        "Den",
        "--that ",
        "himself;\n",
        "disposition,\n",
        "march",
        "serve\n",
        "Hence, ",
        "Worse ",
        "break",
        "Holl",
        "revenge\n",
        "scape ",
        "g,\n",
        "feast,\n",
        "capar",
        "caparis",
        "done; ",
        "that,\n",
        "render ",
        "refuse ",
        "drums ",
        "say! ",
        ".--\n",
        "grate",
        "harm, ",
        "manac",
        "mp, ",
        "clamour ",
        "sh;\n",
        "no: ",
        "back: ",
        "fused ",
        "house; ",
        "wine ",
        "visage ",
        "'Twill ",
        "beard ",
        "crush ",
        "sick, ",
        "heart. ",
        "go?\n\n",
        "cy",
        "goes, ",
        "aug",
        "Marcius.\n\n",
        "bear.\n\n",
        "men: ",
        "ance?\n\n",
        "now: ",
        "pride",
        "tes, ",
        "Menenius, ",
        "alla",
        "ber ",
        "in't; ",
        "syll",
        "faces",
        "controver",
        "audi",
        "dismiss ",
        "ones.\n\n",
        "ary\n",
        "ourable ",
        "tonight",
        "ati",
        "cip",
        "gold\n",
        "possessed ",
        "true.\n",
        "home: ",
        "shoulder ",
        "Tarqu",
        "lie;\n",
        "Heral",
        "Herald:\n",
        "Know, ",
        "up;\n",
        "silence, ",
        "Woul",
        "pardon.\n\n",
        "thee! ",
        "sway ",
        "spectac",
        "neck,\n",
        "walls ",
        "complexi",
        "shown ",
        "popular ",
        "Pho",
        "Phoe",
        "kiss",
        "powers\n",
        "postu",
        "Dou",
        "swear,\n",
        "ty;\n",
        "word: ",
        "sugg",
        "holding ",
        "easy\n",
        "stub",
        "ble; ",
        "ung ",
        "statu",
        "say: ",
        "hate\n",
        "carel",
        "indiffer",
        "greater",
        "affect ",
        "asc",
        "courteous ",
        "otherwi",
        "rebuke ",
        "desire\n",
        "report\n",
        "off;\n",
        "speak?\n\n",
        "horr",
        "alar",
        "monster",
        "honour\n",
        "virtue, ",
        "tator",
        "Sle",
        "field, ",
        "ers;\n",
        "vessel ",
        "forcement ",
        "all's ",
        "he; ",
        "Run ",
        "pant",
        "give; ",
        "content\n",
        "custom, ",
        "ces; ",
        "here: ",
        "also ",
        "accep",
        "black, ",
        "points ",
        "pass.\n\n",
        "way?\n\n",
        "trick",
        "content.\n\n",
        "right: ",
        "bring\n",
        "roar'd ",
        "desire.\n\n",
        "adieu.\n\n",
        "matter.\n\n",
        "ating ",
        "Fif",
        "country.\n\n",
        "hire ",
        "needless ",
        "wept,\n",
        "joy,\n",
        "ation; ",
        "cial ",
        "Anon ",
        "done?\n\n",
        "ds.\n",
        "chose ",
        "childish ",
        "nature\n",
        "artic",
        "solic",
        "contempt ",
        "judgment",
        "ask, ",
        "bestow",
        "pride,\n",
        "besid",
        "inking ",
        "inve",
        "bou",
        "command",
        "should, ",
        "tures ",
        "stock ",
        "came\n",
        "Pu",
        "were,\n",
        "hither;\n",
        "fixed ",
        "Harp ",
        "hazar",
        "stream ",
        "composi",
        "ners ",
        "Saw ",
        "most, ",
        "home.\n",
        "Behold, ",
        "authority,\n",
        "on?\n\n",
        "led.\n\n",
        "inquire ",
        "erved ",
        "table, ",
        "what? ",
        "'twould ",
        "'shall",
        "peremp",
        "peremptor",
        "peremptory ",
        "nel ",
        "vail ",
        "less,\n",
        "other.\n\n",
        "Who",
        "used\n",
        "disobedi",
        "assured\n",
        "thread ",
        "service\n",
        "inies ",
        "reason, ",
        "conclude ",
        "yea ",
        "ness: ",
        "et,\n",
        "long, ",
        "would,\n",
        "wretch, ",
        "ho!\n",
        "Sei",
        "Seize ",
        "roof ",
        "distinc",
        "theirs, ",
        "awhile.\n\n",
        "away!\n",
        "gone;\n",
        "falling ",
        "interrup",
        "request\n",
        "cloth ",
        "Patrician:\n",
        "fortune.\n\n",
        "Tarpeian ",
        "s,--\n\n",
        "heard, ",
        "book, ",
        "Kill",
        "am.\n\n",
        "respected\n",
        "was.\n\n",
        "Proceed ",
        "ed? ",
        "wars\n",
        "language",
        "course\n",
        "ning.\n\n",
        "Menenius,\n",
        "sight, ",
        "ordin",
        "thwar",
        "stoop ",
        "scarcely ",
        "promp",
        "inherit",
        "past.\n\n",
        "elo",
        "eloqu",
        "learned ",
        "hereafter ",
        "fit\n",
        "ence: ",
        "serve, ",
        "thereto ",
        "plot ",
        "discharge ",
        "Small ",
        "smiles ",
        "glasses ",
        "knees,\n",
        "bow'd ",
        "truth\n",
        "basen",
        "content:\n",
        "inven",
        "nica",
        "favour'd ",
        "procu",
        "ready.\n\n",
        "prer",
        "prero",
        "prerogati",
        "contradic",
        "heart; ",
        "ler, ",
        "volu",
        "justice\n",
        "streets ",
        "Tribunes:\n",
        "censure ",
        "churchyar",
        "laught",
        "acc",
        "voice,\n",
        "Answer ",
        "contri",
        "season",
        "injurious ",
        "Bea",
        "mother?\n\n",
        "pronounce ",
        "pent ",
        "cheque ",
        "give,\n",
        "lies, ",
        "we,\n",
        "instan",
        "dding ",
        "capti",
        "load ",
        "pestil",
        "Hercu",
        "Six ",
        "swea",
        "vast ",
        "hear. ",
        "mother.\n\n",
        "gone?\n\n",
        "father? ",
        "words?\n\n",
        "what; ",
        "knot ",
        "made.\n\n",
        "cause. ",
        "Ni",
        "blaze ",
        "breaking ",
        "Ban",
        "boys ",
        "Thank ",
        "farewell.\n",
        "able, ",
        "foes,\n",
        "you?\n",
        "entrance ",
        "kites ",
        "is!\n",
        "How, ",
        "Ay; ",
        "fellow?\n\n",
        "beaten ",
        "dog, ",
        "n.\n",
        "brow ",
        "know'st\n",
        "mischief",
        "memory,\n",
        "suffer'd ",
        "wrea",
        "speed\n",
        "straight,\n",
        "darest ",
        "true",
        "tend ",
        "truer ",
        "wedded ",
        "territor",
        "much. ",
        "turned ",
        "town, ",
        "thwa",
        "thwack ",
        "too\n",
        "iled ",
        "day; ",
        "half, ",
        "themselves, ",
        "feast, ",
        "tailor",
        "ballad",
        "maker",
        "night; ",
        "waking, ",
        "vish",
        "cuck",
        "cheap",
        "friends:\n",
        "Our",
        "happier ",
        "officer ",
        "Sel",
        "prison,\n",
        "punish ",
        "messenger ",
        "possible.\n\n",
        "eyes",
        "s--\n",
        "consumed ",
        ".--",
        "les\n",
        "'Be ",
        "brought\n",
        "capable ",
        "help.\n\n",
        "whip",
        "achieve ",
        "down;\n",
        "Carry ",
        "commanding ",
        "rights ",
        ",--a ",
        "pardon\n",
        "offer'd ",
        "id's ",
        "instant ",
        "make,\n",
        "knowledge\n",
        "faintly ",
        "Thus, ",
        "wife;\n",
        "pass, ",
        "blan",
        "parall",
        "parallel",
        "veri",
        "bowl ",
        "subtle ",
        "dinner.\n\n",
        "women, ",
        "repri",
        "half-",
        "blood; ",
        "hav",
        "Jack ",
        "assured ",
        "suits ",
        "latest ",
        "tempted ",
        "infring",
        "cation ",
        "gos",
        "Forgive ",
        "kiss\n",
        "impression ",
        "Between ",
        "son?\n",
        "or;\n",
        "ici",
        "soldiers,\n",
        "soldiers, ",
        "Again ",
        "sight,\n",
        "flow ",
        "strains ",
        "shed\n",
        "till\n",
        "persuade ",
        "d--\n",
        "A' ",
        "bigg",
        "condemn ",
        "'This ",
        "ped ",
        "ensu",
        "graces ",
        "Down, ",
        "pride\n",
        "mother;\n",
        "mother! ",
        "prevail",
        "seal",
        "built ",
        "stone",
        "eping ",
        "ander",
        "bidd",
        "paint ",
        "tiding",
        "Behold ",
        "paper",
        "theirs ",
        "tear\n",
        "ding",
        "lords;\n",
        "stol'n ",
        "ting\n",
        "Name ",
        "wears ",
        "beating ",
        "'He ",
        "killed ",
        "cousin\n",
        "peace!\n",
        "wher",
        "off. ",
        "servant, ",
        "heral",
        "mounting ",
        "shaped ",
        "glass",
        "nymp",
        "deform",
        "id, ",
        "closely ",
        "mew'd ",
        "heirs ",
        "murderer ",
        "armed ",
        "convey ",
        "Tower.\n",
        "plucks ",
        "learn, ",
        "'d?\n",
        "Clarence; ",
        "chamberla",
        "ty.\n",
        "strait",
        "deg",
        "degree ",
        "Braken",
        "Brakenbur",
        "years, ",
        "excep",
        "betray ",
        "Forbear ",
        "conference ",
        "employ ",
        "sister,\n",
        "Meantime, ",
        "brotherhoo",
        "deeper ",
        "imprisonment ",
        "return.\n",
        "Paul, ",
        "indeed.\n",
        "long,\n",
        "heaven.\n",
        "Clarence,\n",
        "unto",
        "Lancaster.\n",
        "blood",
        "Cursed ",
        "it!\n",
        "direful ",
        "wretch,\n",
        "ug",
        "ugly ",
        "Cher",
        "sey ",
        "Rest ",
        "bert ",
        "higher ",
        "charity, ",
        "Foul ",
        "exclaim",
        "Open ",
        "congea",
        "unnatural,\n",
        "lightning ",
        "ed!\n\n",
        "bad, ",
        "blessings ",
        "angels ",
        "perfection ",
        "woman,\n",
        "thyself,\n",
        "murderous ",
        "mind.\n",
        "dreamt ",
        "dun",
        "bed-",
        "chamber.\n\n",
        "caus",
        "timeless ",
        "haunt ",
        "that; ",
        "able,\n",
        "bereft ",
        "husband,\n",
        "fouler ",
        "store ",
        "weep,\n",
        "wet ",
        "sued ",
        "posed ",
        "Teach ",
        "Shall, ",
        "false.\n\n",
        "thine.\n",
        "Berkeley, ",
        "mag",
        "afford\n",
        "thus?\n",
        "while:\n",
        "glass,\n",
        "bought ",
        "madam: ",
        "harm.\n\n",
        "ry.\n\n",
        "by.\n\n",
        "notwith",
        "wayward ",
        "to-day, ",
        "likelihood ",
        "Betwixt ",
        "warn ",
        "complain ",
        "Jack",
        "grace.\n",
        "end; ",
        "ens ",
        "meaning, ",
        "Gloucester;\n",
        "contented ",
        "enjoy",
        "advocate ",
        "bache",
        "bachelor",
        "match.\n\n",
        "borne",
        "blunt ",
        "acquaint ",
        "unts ",
        "Out, ",
        "liberal ",
        "spil",
        "husband\n",
        "Margaret's ",
        "are;\n",
        "Jesu ",
        "Edward'",
        "days\n",
        "altogether ",
        "wrang",
        "wrangling ",
        "death?\n\n",
        "was; ",
        "banishment\n",
        "babe,\n",
        "kingdom's ",
        "Thyself ",
        "Rivers ",
        "accident ",
        "hurl ",
        "seal'd ",
        "slave ",
        "detes",
        "w'st ",
        "sugar",
        "lunatic",
        "miserab",
        "dall",
        "Wit",
        "beams ",
        "eternal ",
        "darkness ",
        "Ur",
        "Urge ",
        "deal",
        "house!\n",
        "ministers ",
        "Live ",
        "any, ",
        "repa",
        "soft! ",
        "stones, ",
        "day?\n\n",
        "Burgund",
        "England,\n",
        "gem",
        "secrets ",
        "'What ",
        "perjur",
        "afford ",
        "hair\n",
        "perjured ",
        "hideous ",
        "execute ",
        "rest!\n",
        "breaks ",
        "hither?\n\n",
        "hands:\n",
        "signify ",
        "dly, ",
        "'Zounds, ",
        "purse",
        "swear, ",
        "blushing ",
        "fills ",
        "suad",
        "humb",
        "Wherefore ",
        "Never, ",
        "innocent",
        "Clarence' ",
        "threaten ",
        "l! ",
        "kings\n",
        "law.\n\n",
        "cherish ",
        "Plantagenet,\n",
        "vice, ",
        "fault,\n",
        "be; ",
        "thra",
        "ldom ",
        "done!\n\n",
        "heavens, ",
        "hate:\n",
        "awar",
        "cordi",
        "queen:\n",
        "lodged ",
        "English",
        "to-night\n",
        "rise, ",
        "Sin",
        "wait",
        "fruit ",
        "ness! ",
        "orp",
        "orphan",
        "importun",
        "peace! ",
        "shallow ",
        "Gran",
        "Grandam, ",
        "kiss'd ",
        "rely ",
        "deceit "
    ],
    "merges": [
        [
            "e",
            " "
        ],
        [
            "t",
            "h"
        ],
        [
            "t",
            " "
        ],
        [
            "s",
            " "
        ],
        [
            "d",
            " "
        ],
        [
            ",",
            " "
        ],
        [
            "o",
            "u"
        ],
        [
            "e",
            "r"
        ],
        [
            "i",
            "n"
        ],
        [
            "y",
            " "
        ],
        [
            "a",
            "n"
        ],
        [
            ":",
            "\n"
        ],
        [
            "o",
            "r"
        ],
        [
            "o",
            " "
        ],
        [
            "e",
            "n"
        ],
        [
            "\n",
            "\n"
        ],
        [
            "a",
            "r"
        ],
        [
            "o",
            "n"
        ],
        [
            "l",
            "l"
        ],
        [
            "h",
            "a"
        ],
        [
            ",",
            "\n"
        ],
        [
            "th",
            "e "
        ],
        [
            ".",
            "\n\n"
        ],
        [
            "i",
            "s "
        ],
        [
            "e",
            "s"
        ],
        [
            "f",
            " "
        ],
        [
            "y",
            "ou"
        ],
        [
            "I",
            " "
        ],
        [
            "ll",
            " "
        ],
        [
            "t",
            "o "
        ],
        [
            "an",
            "d "
        ],
        [
            "o",
            "w"
        ],
        [
            "e",
            "a"
        ],
        [
            "in",
            "g"
        ],
        [
            "w",
            "i"
        ],
        [
            "o",
            "m"
        ],
        [
            "r",
            " "
        ],
        [
            "s",
            "t"
        ],
        [
            "er",
            " "
        ],
        [
            "o",
            "f "
        ],
        [
            "th",
            " "
        ],
        [
            "h",
            "i"
        ],
        [
            "s",
            "e"
        ],
        [
            "n",
            "o"
        ],
        [
            "or",
            " "
        ],
        [
            "c",
            "h"
        ],
        [
            "m",
            "y "
        ],
        [
            "a",
            " "
        ],
        [
            "v",
            "e "
        ],
        [
            "in",
            " "
        ],
        [
            "e",
            ", "
        ],
        [
            "h",
            "e "
        ],
        [
            "th",
            "e"
        ],
        [
            "l",
            "i"
        ],
        [
            "r",
            "e"
        ],
        [
            "a",
            "t "
        ],
        [
            "ing",
            " "
        ],
        [
            "s",
            "t "
        ],
        [
            "A",
            "n"
        ],
        [
            "e",
            "ar"
        ],
        [
            "t",
            "i"
        ],
        [
            "o",
            "o"
        ],
        [
            "you",
            " "
        ],
        [
            "g",
            "h"
        ],
        [
            "r",
            "i"
        ],
        [
            "en",
            " "
        ],
        [
            ";",
            " "
        ],
        [
            "m",
            "a"
        ],
        [
            "l",
            "e"
        ],
        [
            "r",
            "a"
        ],
        [
            "An",
            "d "
        ],
        [
            "'",
            "s "
        ],
        [
            "th",
            "at "
        ],
        [
            "no",
            "t "
        ],
        [
            "m",
            " "
        ],
        [
            ";",
            "\n"
        ],
        [
            ".",
            "\n"
        ],
        [
            "on",
            " "
        ],
        [
            "th",
            "ou"
        ],
        [
            "l",
            "a"
        ],
        [
            "i",
            "r"
        ],
        [
            "b",
            "e"
        ],
        [
            "a",
            "s "
        ],
        [
            "h",
            "is "
        ],
        [
            "m",
            "e "
        ],
        [
            "ha",
            "t "
        ],
        [
            "u",
            "t "
        ],
        [
            "e",
            "d "
        ],
        [
            "l",
            "d "
        ],
        [
            "s",
            "h"
        ],
        [
            "wi",
            "th "
        ],
        [
            "ow",
            " "
        ],
        [
            ":",
            " "
        ],
        [
            "O",
            ":\n"
        ],
        [
            "u",
            "r"
        ],
        [
            "you",
            "r "
        ],
        [
            "r",
            "o"
        ],
        [
            "i",
            "t"
        ],
        [
            "b",
            "e "
        ],
        [
            "an",
            " "
        ],
        [
            "d",
            "i"
        ],
        [
            "h",
            "er"
        ],
        [
            "k",
            " "
        ],
        [
            "m",
            "e"
        ],
        [
            "i",
            "t "
        ],
        [
            "ch",
            " "
        ],
        [
            "d",
            ", "
        ],
        [
            "u",
            "n"
        ],
        [
            "E",
            "N"
        ],
        [
            "f",
            "or "
        ],
        [
            "k",
            "e "
        ],
        [
            "c",
            "e"
        ],
        [
            "y",
            ", "
        ],
        [
            "f",
            "or"
        ],
        [
            "th",
            "er"
        ],
        [
            "I",
            "N"
        ],
        [
            "a",
            "t"
        ],
        [
            "?",
            "\n\n"
        ],
        [
            "f",
            "a"
        ],
        [
            "ha",
            "ve "
        ],
        [
            "S",
            ":\n"
        ],
        [
            "s",
            "e "
        ],
        [
            "e",
            "s "
        ],
        [
            "s",
            ", "
        ],
        [
            "c",
            "om"
        ],
        [
            "s",
            "a"
        ],
        [
            "l",
            " "
        ],
        [
            "e",
            "e"
        ],
        [
            "ou",
            "r "
        ],
        [
            ".",
            " "
        ],
        [
            "en",
            "t"
        ],
        [
            "A",
            "R"
        ],
        [
            "c",
            "e "
        ],
        [
            "th",
            "is "
        ],
        [
            "l",
            "o"
        ],
        [
            "thou",
            " "
        ],
        [
            "n",
            " "
        ],
        [
            "T",
            "h"
        ],
        [
            "l",
            "e "
        ],
        [
            "'",
            "d "
        ],
        [
            "I",
            "O:\n"
        ],
        [
            "s",
            "ha"
        ],
        [
            "s",
            "p"
        ],
        [
            "th",
            "y "
        ],
        [
            "t",
            ", "
        ],
        [
            "t",
            "a"
        ],
        [
            "r",
            "ea"
        ],
        [
            "ou",
            "ld "
        ],
        [
            "s",
            "u"
        ],
        [
            "l",
            "y "
        ],
        [
            "d",
            "e"
        ],
        [
            "!",
            " "
        ],
        [
            "U",
            "S:\n"
        ],
        [
            "wi",
            "ll "
        ],
        [
            "b",
            "ut "
        ],
        [
            "T",
            "he "
        ],
        [
            "c",
            "on"
        ],
        [
            "c",
            "a"
        ],
        [
            "om",
            " "
        ],
        [
            "r",
            "u"
        ],
        [
            "w",
            "h"
        ],
        [
            "w",
            "e"
        ],
        [
            "s",
            "i"
        ],
        [
            "v",
            "e"
        ],
        [
            "T",
            "o "
        ],
        [
            "w",
            "or"
        ],
        [
            "ar",
            "e "
        ],
        [
            "d",
            "\n"
        ],
        [
            "n",
            "e"
        ],
        [
            "w",
            "a"
        ],
        [
            "o",
            "l"
        ],
        [
            "v",
            "er"
        ],
        [
            "d",
            "a"
        ],
        [
            "gh",
            "t"
        ],
        [
            "m",
            "or"
        ],
        [
            "i",
            "r "
        ],
        [
            "m",
            "i"
        ],
        [
            "oo",
            "d "
        ],
        [
            "U",
            "C"
        ],
        [
            "m",
            "an"
        ],
        [
            "b",
            "y "
        ],
        [
            "t",
            "e"
        ],
        [
            "IN",
            "G"
        ],
        [
            "u",
            "p"
        ],
        [
            "c",
            "k"
        ],
        [
            "sha",
            "ll "
        ],
        [
            "a",
            "ll "
        ],
        [
            "th",
            "er "
        ],
        [
            "s",
            "\n"
        ],
        [
            "s",
            "o "
        ],
        [
            "ou",
            "n"
        ],
        [
            "m",
            "u"
        ],
        [
            "A",
            "N"
        ],
        [
            "W",
            "h"
        ],
        [
            "l",
            "or"
        ],
        [
            "E",
            "R"
        ],
        [
            "e",
            "t "
        ],
        [
            "s",
            ",\n"
        ],
        [
            "O",
            "R"
        ],
        [
            "hi",
            "m "
        ],
        [
            "r",
            "es"
        ],
        [
            "ear",
            " "
        ],
        [
            "m",
            "o"
        ],
        [
            "w",
            "e "
        ],
        [
            "hi",
            "m"
        ],
        [
            "se",
            "l"
        ],
        [
            "!",
            "\n"
        ],
        [
            "t",
            "o"
        ],
        [
            "E",
            "T"
        ],
        [
            "her",
            "e "
        ],
        [
            "t",
            "t"
        ],
        [
            "T",
            "hat "
        ],
        [
            "k",
            "n"
        ],
        [
            "r",
            "om "
        ],
        [
            "p",
            "o"
        ],
        [
            "q",
            "u"
        ],
        [
            "ou",
            "r"
        ],
        [
            "f",
            "e"
        ],
        [
            "v",
            "i"
        ],
        [
            "?",
            " "
        ],
        [
            "d",
            "o "
        ],
        [
            "d",
            ",\n"
        ],
        [
            "d",
            "o"
        ],
        [
            "!",
            "\n\n"
        ],
        [
            "d",
            "s "
        ],
        [
            "h",
            "er "
        ],
        [
            "er",
            "e "
        ],
        [
            "g",
            "e"
        ],
        [
            "p",
            "a"
        ],
        [
            "n",
            "o "
        ],
        [
            "'",
            "ll "
        ],
        [
            "A",
            ":\n"
        ],
        [
            "gh",
            "t "
        ],
        [
            "g",
            "a"
        ],
        [
            "w",
            "hat "
        ],
        [
            "K",
            "ING"
        ],
        [
            "b",
            "l"
        ],
        [
            "hi",
            "ch "
        ],
        [
            "?",
            "\n"
        ],
        [
            "c",
            "i"
        ],
        [
            "B",
            "ut "
        ],
        [
            "f",
            "i"
        ],
        [
            "b",
            "o"
        ],
        [
            "es",
            "t "
        ],
        [
            "on",
            "g"
        ],
        [
            "h",
            "e"
        ],
        [
            "f",
            "rom "
        ],
        [
            "ou",
            " "
        ],
        [
            "a",
            "l"
        ],
        [
            "on",
            "e "
        ],
        [
            "s",
            "o"
        ],
        [
            "s",
            "ir"
        ],
        [
            "w",
            "ar"
        ],
        [
            "I",
            "C"
        ],
        [
            "d",
            "ea"
        ],
        [
            "O",
            "L"
        ],
        [
            "u",
            "s "
        ],
        [
            "es",
            "s "
        ],
        [
            "p",
            " "
        ],
        [
            "h",
            "ear"
        ],
        [
            "g",
            "ood "
        ],
        [
            "h",
            "ea"
        ],
        [
            "d",
            ".\n\n"
        ],
        [
            "f",
            "u"
        ],
        [
            "w",
            "as "
        ],
        [
            "'",
            " "
        ],
        [
            "E",
            "L"
        ],
        [
            "i",
            "f "
        ],
        [
            "l",
            "ea"
        ],
        [
            "en",
            "t "
        ],
        [
            "I",
            "US:\n"
        ],
        [
            "KING",
            " "
        ],
        [
            "AR",
            "D"
        ],
        [
            "F",
            "or "
        ],
        [
            "u",
            "s"
        ],
        [
            "e",
            "\n"
        ],
        [
            "r",
            "ow"
        ],
        [
            "om",
            "e "
        ],
        [
            "m",
            "in"
        ],
        [
            "o",
            "f"
        ],
        [
            "p",
            "ar"
        ],
        [
            "-",
            "-"
        ],
        [
            "S",
            "T"
        ],
        [
            "w",
            "ould "
        ],
        [
            "M",
            "y "
        ],
        [
            "i",
            "s"
        ],
        [
            "es",
            "t"
        ],
        [
            "e",
            ",\n"
        ],
        [
            "the",
            "ir "
        ],
        [
            "W",
            "i"
        ],
        [
            "e",
            ".\n\n"
        ],
        [
            "ou",
            "s "
        ],
        [
            "r",
            "an"
        ],
        [
            "'",
            "t"
        ],
        [
            "I",
            "'ll "
        ],
        [
            "p",
            "ro"
        ],
        [
            "a",
            "m "
        ],
        [
            "E",
            ":\n"
        ],
        [
            "g",
            "i"
        ],
        [
            "o",
            ", "
        ],
        [
            "th",
            "in"
        ],
        [
            "h",
            "o"
        ],
        [
            "the",
            "y "
        ],
        [
            "O",
            "N"
        ],
        [
            "d",
            "er"
        ],
        [
            "v",
            "er "
        ],
        [
            "p",
            "er"
        ],
        [
            "the",
            "e "
        ],
        [
            "y",
            "\n"
        ],
        [
            "e",
            "t"
        ],
        [
            "g",
            "ra"
        ],
        [
            "s",
            "w"
        ],
        [
            "A",
            "s "
        ],
        [
            "b",
            "ro"
        ],
        [
            "W",
            "hat "
        ],
        [
            "mor",
            "e "
        ],
        [
            "b",
            "le "
        ],
        [
            "I",
            "I"
        ],
        [
            "s",
            "on"
        ],
        [
            "e",
            "l"
        ],
        [
            "d",
            "e "
        ],
        [
            "k",
            "ing"
        ],
        [
            "b",
            "a"
        ],
        [
            "A",
            " "
        ],
        [
            "s",
            "he "
        ],
        [
            "w",
            "ere "
        ],
        [
            "c",
            "k "
        ],
        [
            "s",
            ".\n\n"
        ],
        [
            "t",
            "\n"
        ],
        [
            "ha",
            "th "
        ],
        [
            "H",
            "a"
        ],
        [
            "g",
            "e "
        ],
        [
            "t",
            "ru"
        ],
        [
            "g",
            "o"
        ],
        [
            "ti",
            "on"
        ],
        [
            "y",
            ".\n\n"
        ],
        [
            "gh",
            " "
        ],
        [
            "li",
            "ke "
        ],
        [
            "ARD",
            " "
        ],
        [
            "ma",
            "ke "
        ],
        [
            "R",
            "O"
        ],
        [
            "d",
            "u"
        ],
        [
            "T",
            "IO:\n"
        ],
        [
            "an",
            "d"
        ],
        [
            "her",
            "e"
        ],
        [
            "n",
            "i"
        ],
        [
            "p",
            "r"
        ],
        [
            "n",
            "a"
        ],
        [
            "th",
            "an "
        ],
        [
            "ET",
            ":\n"
        ],
        [
            "A",
            "U"
        ],
        [
            "ga",
            "in"
        ],
        [
            "ma",
            "y "
        ],
        [
            "le",
            "t "
        ],
        [
            "m",
            "p"
        ],
        [
            "Y",
            " "
        ],
        [
            "E",
            " "
        ],
        [
            "w",
            " "
        ],
        [
            "ll",
            ", "
        ],
        [
            "Y",
            "ou "
        ],
        [
            "mu",
            "st "
        ],
        [
            "m",
            "b"
        ],
        [
            "y",
            ",\n"
        ],
        [
            "es",
            ", "
        ],
        [
            "p",
            "e"
        ],
        [
            "com",
            "e "
        ],
        [
            "ir",
            "st "
        ],
        [
            "f",
            "ri"
        ],
        [
            "sp",
            "ea"
        ],
        [
            "the",
            "m "
        ],
        [
            "m",
            "e, "
        ],
        [
            "sh",
            "ould "
        ],
        [
            "en",
            "d "
        ],
        [
            "you",
            ", "
        ],
        [
            "K",
            ":\n"
        ],
        [
            "t",
            "er"
        ],
        [
            "en",
            "d"
        ],
        [
            "en",
            ", "
        ],
        [
            "I",
            "f "
        ],
        [
            "up",
            "on "
        ],
        [
            "sel",
            "f"
        ],
        [
            "C",
            "A"
        ],
        [
            "IC",
            "H"
        ],
        [
            "p",
            "p"
        ],
        [
            "R",
            "ICH"
        ],
        [
            "c",
            "an"
        ],
        [
            "w",
            "hich "
        ],
        [
            "D",
            "U"
        ],
        [
            "DU",
            "K"
        ],
        [
            "for",
            "e "
        ],
        [
            "DUK",
            "E "
        ],
        [
            "st",
            "a"
        ],
        [
            "m",
            "ar"
        ],
        [
            "ha",
            "d "
        ],
        [
            "h",
            "on"
        ],
        [
            "th",
            "en "
        ],
        [
            "n",
            "ow "
        ],
        [
            "h",
            "ow "
        ],
        [
            "a",
            "c"
        ],
        [
            "g",
            "u"
        ],
        [
            "v",
            "en "
        ],
        [
            "om",
            "e"
        ],
        [
            "EN",
            "TIO:\n"
        ],
        [
            "G",
            "o"
        ],
[...]
